<unk>	0
<s>	0
</s>	0
<|user|>	0
<|assistant|>	0
<|system|>	0
<0x00>	0
<0x01>	0
<0x02>	0
<0x03>	0
<0x04>	0
<0x05>	0
<0x06>	0
<0x07>	0
<0x08>	0
<0x09>	0
<0x0A>	0
<0x0B>	0
<0x0C>	0
<0x0D>	0
<0x0E>	0
<0x0F>	0
<0x10>	0
<0x11>	0
<0x12>	0
<0x13>	0
<0x14>	0
<0x15>	0
<0x16>	0
<0x17>	0
<0x18>	0
<0x19>	0
<0x1A>	0
<0x1B>	0
<0x1C>	0
<0x1D>	0
<0x1E>	0
<0x1F>	0
<0x20>	0
<0x21>	0
<0x22>	0
<0x23>	0
<0x24>	0
<0x25>	0
<0x26>	0
<0x27>	0
<0x28>	0
<0x29>	0
<0x2A>	0
<0x2B>	0
<0x2C>	0
<0x2D>	0
<0x2E>	0
<0x2F>	0
<0x30>	0
<0x31>	0
<0x32>	0
<0x33>	0
<0x34>	0
<0x35>	0
<0x36>	0
<0x37>	0
<0x38>	0
<0x39>	0
<0x3A>	0
<0x3B>	0
<0x3C>	0
<0x3D>	0
<0x3E>	0
<0x3F>	0
<0x40>	0
<0x41>	0
<0x42>	0
<0x43>	0
<0x44>	0
<0x45>	0
<0x46>	0
<0x47>	0
<0x48>	0
<0x49>	0
<0x4A>	0
<0x4B>	0
<0x4C>	0
<0x4D>	0
<0x4E>	0
<0x4F>	0
<0x50>	0
<0x51>	0
<0x52>	0
<0x53>	0
<0x54>	0
<0x55>	0
<0x56>	0
<0x57>	0
<0x58>	0
<0x59>	0
<0x5A>	0
<0x5B>	0
<0x5C>	0
<0x5D>	0
<0x5E>	0
<0x5F>	0
<0x60>	0
<0x61>	0
<0x62>	0
<0x63>	0
<0x64>	0
<0x65>	0
<0x66>	0
<0x67>	0
<0x68>	0
<0x69>	0
<0x6A>	0
<0x6B>	0
<0x6C>	0
<0x6D>	0
<0x6E>	0
<0x6F>	0
<0x70>	0
<0x71>	0
<0x72>	0
<0x73>	0
<0x74>	0
<0x75>	0
<0x76>	0
<0x77>	0
<0x78>	0
<0x79>	0
<0x7A>	0
<0x7B>	0
<0x7C>	0
<0x7D>	0
<0x7E>	0
<0x7F>	0
<0x80>	0
<0x81>	0
<0x82>	0
<0x83>	0
<0x84>	0
<0x85>	0
<0x86>	0
<0x87>	0
<0x88>	0
<0x89>	0
<0x8A>	0
<0x8B>	0
<0x8C>	0
<0x8D>	0
<0x8E>	0
<0x8F>	0
<0x90>	0
<0x91>	0
<0x92>	0
<0x93>	0
<0x94>	0
<0x95>	0
<0x96>	0
<0x97>	0
<0x98>	0
<0x99>	0
<0x9A>	0
<0x9B>	0
<0x9C>	0
<0x9D>	0
<0x9E>	0
<0x9F>	0
<0xA0>	0
<0xA1>	0
<0xA2>	0
<0xA3>	0
<0xA4>	0
<0xA5>	0
<0xA6>	0
<0xA7>	0
<0xA8>	0
<0xA9>	0
<0xAA>	0
<0xAB>	0
<0xAC>	0
<0xAD>	0
<0xAE>	0
<0xAF>	0
<0xB0>	0
<0xB1>	0
<0xB2>	0
<0xB3>	0
<0xB4>	0
<0xB5>	0
<0xB6>	0
<0xB7>	0
<0xB8>	0
<0xB9>	0
<0xBA>	0
<0xBB>	0
<0xBC>	0
<0xBD>	0
<0xBE>	0
<0xBF>	0
<0xC0>	0
<0xC1>	0
<0xC2>	0
<0xC3>	0
<0xC4>	0
<0xC5>	0
<0xC6>	0
<0xC7>	0
<0xC8>	0
<0xC9>	0
<0xCA>	0
<0xCB>	0
<0xCC>	0
<0xCD>	0
<0xCE>	0
<0xCF>	0
<0xD0>	0
<0xD1>	0
<0xD2>	0
<0xD3>	0
<0xD4>	0
<0xD5>	0
<0xD6>	0
<0xD7>	0
<0xD8>	0
<0xD9>	0
<0xDA>	0
<0xDB>	0
<0xDC>	0
<0xDD>	0
<0xDE>	0
<0xDF>	0
<0xE0>	0
<0xE1>	0
<0xE2>	0
<0xE3>	0
<0xE4>	0
<0xE5>	0
<0xE6>	0
<0xE7>	0
<0xE8>	0
<0xE9>	0
<0xEA>	0
<0xEB>	0
<0xEC>	0
<0xED>	0
<0xEE>	0
<0xEF>	0
<0xF0>	0
<0xF1>	0
<0xF2>	0
<0xF3>	0
<0xF4>	0
<0xF5>	0
<0xF6>	0
<0xF7>	0
<0xF8>	0
<0xF9>	0
<0xFA>	0
<0xFB>	0
<0xFC>	0
<0xFD>	0
<0xFE>	0
<0xFF>	0
▁t	-0
he	-1
▁a	-2
in	-3
▁o	-4
re	-5
▁the	-6
on	-7
at	-8
er	-9
is	-10
▁of	-11
en	-12
▁c	-13
es	-14
▁s	-15
▁p	-16
it	-17
al	-18
ion	-19
an	-20
ic	-21
▁in	-22
▁f	-23
▁d	-24
ou	-25
▁b	-26
▁w	-27
or	-28
ed	-29
▁m	-30
▁an	-31
ct	-32
▁T	-33
ro	-34
ar	-35
▁e	-36
▁is	-37
ing	-38
le	-39
ent	-40
▁and	-41
▁to	-42
st	-43
▁The	-44
ve	-45
as	-46
▁I	-47
▁re	-48
om	-49
ation	-50
ow	-51
▁C	-52
▁l	-53
hat	-54
▁E	-55
▁A	-56
▁D	-57
et	-58
ut	-59
▁S	-60
ri	-61
▁P	-62
ll	-63
▁h	-64
▁(	-65
pl	-66
▁W	-67
▁n	-68
ain	-69
00	-70
▁g	-71
ce	-72
▁be	-73
▁pro	-74
ment	-75
id	-76
▁are	-77
ate	-78
▁con	-79
▁de	-80
▁1	-81
▁for	-82
ur	-83
▁y	-84
ly	-85
ot	-86
im	-87
se	-88
un	-89
qu	-90
um	-91
ig	-92
▁st	-93
ol	-94
ver	-95
ity	-96
▁ab	-97
▁or	-98
▁=	-99
▁What	-100
il	-101
rib	-102
res	-103
ra	-104
▁as	-105
ul	-106
out	-107
ers	-108
▁In	-109
ric	-110
▁ex	-111
od	-112
ction	-113
▁on	-114
if	-115
▁2	-116
▁k	-117
▁by	-118
▁v	-119
plain	-120
esc	-121
▁you	-122
ch	-123
▁about	-124
escrib	-125
▁M	-126
ir	-127
▁Ex	-128
escribe	-129
▁Describe	-130
▁F	-131
ist	-132
ive	-133
ge	-134
▁H	-135
▁th	-136
ab	-137
▁do	-138
▁su	-139
du	-140
▁kn	-141
▁know	-142
▁R	-143
ant	-144
▁can	-145
us	-146
ith	-147
os	-148
ect	-149
iv	-150
▁B	-151
oun	-152
em	-153
ure	-154
ci	-155
▁en	-156
▁com	-157
▁with	-158
▁it	-159
▁Explain	-160
▁wh	-161
and	-162
▁r	-163
ess	-164
▁at	-165
rom	-166
▁O	-167
▁ma	-168
her	-169
lect	-170
▁inc	-171
▁L	-172
ere	-173
ies	-174
ter	-175
▁i	-176
▁N	-177
ater	-178
ave	-179
ution	-180
am	-181
▁It	-182
our	-183
igh	-184
▁that	-185
ine	-186
ical	-187
ich	-188
ue	-189
▁which	-190
▁from	-191
per	-192
▁un	-193
ia	-194
th	-195
ore	-196
▁pric	-197
▁me	-198
▁G	-199
▁ch	-200
stit	-201
▁al	-202
ts	-203
▁sh	-204
▁Th	-205
ud	-206
ay	-207
act	-208
000	-209
sion	-210
▁le	-211
ill	-212
▁produ	-213
▁dem	-214
end	-215
▁res	-216
all	-217
▁se	-218
erg	-219
▁elect	-220
▁per	-221
ef	-222
▁+	-223
reas	-224
▁go	-225
ost	-226
tic	-227
▁not	-228
con	-229
▁int	-230
▁state	-231
hen	-232
ial	-233
ad	-234
able	-235
⃗⃗	-236
▁demand	-237
ld	-238
ire	-239
op	-240
gh	-241
ition	-242
ast	-243
ther	-244
ib	-245
ear	-246
▁par	-247
pp	-248
nt	-249
ac	-250
ell	-251
ary	-252
stitution	-253
▁he	-254
▁dis	-255
▁-	-256
vern	-257
pt	-258
..	-259
▁price	-260
▁3	-261
▁water	-262
vel	-263
ust	-264
▁ad	-265
ome	-266
ice	-267
▁St	-268
ated	-269
ff	-270
▁comp	-271
▁This	-272
ident	-273
▁equ	-274
▁sp	-275
ppl	-276
ke	-277
iz	-278
est	-279
▁cont	-280
ard	-281
iff	-282
ates	-283
▁&	-284
ergy	-285
▁so	-286
▁all	-287
ance	-288
ub	-289
inist	-290
▁has	-291
eg	-292
so	-293
cc	-294
oin	-295
▁5	-296
ons	-297
▁wave	-298
ii	-299
ous	-300
ans	-301
▁qu	-302
ount	-303
ort	-304
▁4	-305
▁cons	-306
▁us	-307
▁other	-308
der	-309
ces	-310
▁em	-311
▁diff	-312
▁energy	-313
ound	-314
▁im	-315
ag	-316
▁fun	-317
▁constitution	-318
ative	-319
TI	-320
erm	-321
▁year	-322
▁Ind	-323
▁ph	-324
lation	-325
age	-326
▁am	-327
ime	-328
▁dep	-329
ON	-330
aw	-331
ens	-332
ank	-333
cy	-334
▁val	-335
ight	-336
yst	-337
oll	-338
▁any	-339
ace	-340
▁0	-341
▁increas	-342
,000	-343
▁If	-344
▁also	-345
conom	-346
▁As	-347
▁there	-348
up	-349
▁form	-350
actor	-351
▁this	-352
cess	-353
▁met	-354
ber	-355
▁dec	-356
oint	-357
ating	-358
▁we	-359
▁suppl	-360
▁comm	-361
use	-362
▁An	-363
▁its	-364
ass	-365
ould	-366
resident	-367
▁pl	-368
ystem	-369
▁have	-370
ual	-371
de	-372
wo	-373
▁gr	-374
▁ra	-375
ak	-376
ap	-377
here	-378
ange	-379
ence	-380
rit	-381
oc	-382
ree	-383
__	-384
▁He	-385
ys	-386
▁will	-387
▁imp	-388
ject	-389
ult	-390
vernment	-391
ature	-392
ari	-393
▁inf	-394
▁li	-395
▁time	-396
▁two	-397
ities	-398
ions	-399
▁cur	-400
▁app	-401
▁their	-402
▁OF	-403
isl	-404
red	-405
ix	-406
▁cost	-407
cial	-408
▁pres	-409
▁10	-410
ign	-411
ase	-412
▁mon	-413
▁factor	-414
▁what	-415
▁President	-416
ough	-417
▁State	-418
▁function	-419
▁j	-420
ER	-421
▁wor	-422
▁pre	-423
▁explain	-424
ip	-425
▁value	-426
▁quant	-427
▁differe	-428
▁exp	-429
▁when	-430
ide	-431
▁one	-432
ourt	-433
▁Pro	-434
▁law	-435
▁partic	-436
▁Def	-437
▁U	-438
▁econom	-439
een	-440
ding	-441
▁bet	-442
▁supply	-443
▁India	-444
▁prov	-445
ise	-446
erv	-447
▁Par	-448
low	-449
ics	-450
▁ag	-451
ency	-452
av	-453
ax	-454
lia	-455
liament	-456
▁V	-457
orm	-458
eral	-459
ween	-460
▁rem	-461
▁between	-462
ry	-463
▁Define	-464
ie	-465
▁should	-466
me	-467
▁pow	-468
▁sub	-469
ose	-470
ffect	-471
……	-472
▁ne	-473
ep	-474
▁Ch	-475
▁rate	-476
ec	-477
mental	-478
▁more	-479
▁Can	-480
▁they	-481
▁off	-482
▁Con	-483
▁Tell	-484
ple	-485
its	-486
ach	-487
▁may	-488
▁inter	-489
▁mem	-490
og	-491
▁'	-492
ollow	-493
▁There	-494
▁Com	-495
▁used	-496
ark	-497
▁bec	-498
▁follow	-499
ong	-500
--	-501
▁ri	-502
ame	-503
▁level	-504
▁tr	-505
▁Rs	-506
▁num	-507
▁vari	-508
▁sc	-509
▁cor	-510
▁government	-511
▁process	-512
▁Parliament	-513
ations	-514
very	-515
gth	-516
▁good	-517
tain	-518
iod	-519
▁Q	-520
▁call	-521
▁Go	-522
▁system	-523
▁So	-524
▁electr	-525
cul	-526
rin	-527
▁giv	-528
ru	-529
TION	-530
dition	-531
iron	-532
▁Leg	-533
▁product	-534
▁out	-535
ey	-536
▁called	-537
ures	-538
ational	-539
EN	-540
▁pos	-541
ane	-542
▁ref	-543
irect	-544
rough	-545
▁fin	-546
▁than	-547
▁Court	-548
▁but	-549
erest	-550
arge	-551
▁They	-552
▁Legisl	-553
▁J	-554
ments	-555
▁bank	-556
ved	-557
▁righ	-558
ents	-559
▁En	-560
lud	-561
▁fir	-562
hod	-563
▁high	-564
nce	-565
▁Minist	-566
▁states	-567
▁like	-568
aste	-569
▁quantity	-570
hem	-571
▁if	-572
ph	-573
viron	-574
ium	-575
▁change	-576
bers	-577
▁number	-578
ause	-579
ings	-580
▁sur	-581
el	-582
▁ii	-583
ced	-584
▁cent	-585
ied	-586
▁sal	-587
rinci	-588
ength	-589
▁𝜕	-590
▁:	-591
▁6	-592
ission	-593
IS	-594
▁act	-595
▁dist	-596
▁different	-597
▁cl	-598
....	-599
ixed	-600
▁ass	-601
▁increase	-602
10	-603
tern	-604
▁trans	-605
▁only	-606
pert	-607
▁det	-608
▁bo	-609
gan	-610
▁When	-611
▁production	-612
▁low	-613
▁inv	-614
▁through	-615
yp	-616
itt	-617
arket	-618
▁prices	-619
▁period	-620
ven	-621
▁such	-622
▁co	-623
arg	-624
▁income	-625
AL	-626
oth	-627
▁phot	-628
ible	-629
▁light	-630
di	-631
▁up	-632
▁his	-633
etic	-634
ility	-635
▁oil	-636
▁These	-637
▁ac	-638
▁over	-639
▁given	-640
urn	-641
aterial	-642
▁under	-643
▁years	-644
ific	-645
eneral	-646
reci	-647
▁these	-648
).	-649
ove	-650
▁term	-651
▁interest	-652
ants	-653
fore	-654
▁following	-655
▁metal	-656
ang	-657
▁same	-658
▁acc	-659
▁x	-660
▁rep	-661
alcul	-662
▁members	-663
▁tem	-664
▁point	-665
les	-666
xim	-667
uring	-668
ral	-669
lic	-670
ES	-671
▁material	-672
▁count	-673
▁office	-674
▁due	-675
▁surf	-676
fter	-677
▁spe	-678
▁8	-679
ors	-680
▁inflation	-681
ha	-682
▁man	-683
▁reg	-684
ness	-685
ources	-686
gine	-687
▁effect	-688
▁But	-689
▁power	-690
ite	-691
▁requ	-692
▁amount	-693
▁How	-694
reme	-695
ctions	-696
cept	-697
ouse	-698
▁1.	-699
val	-700
▁no	-701
▁particle	-702
▁ind	-703
▁minist	-704
▁0.	-705
olog	-706
____	-707
▁corro	-708
▁where	-709
50	-710
old	-711
length	-712
▁pers	-713
ory	-714
hemical	-715
▁iii	-716
ublic	-717
▁19	-718
ensity	-719
ici	-720
tc	-721
▁etc	-722
▁100	-723
▁both	-724
▁commod	-725
▁maxim	-726
▁money	-727
netic	-728
AT	-729
2)	-730
vernor	-731
▁goods	-732
aser	-733
▁first	-734
cond	-735
wer	-736
▁determ	-737
ined	-738
▁def	-739
▁typ	-740
rtic	-741
▁CO	-742
pos	-743
▁jud	-744
▁	-745
oy	-746
▁,	-747
▁curve	-748
ish	-749
▁market	-750
ering	-751
▁mat	-752
ten	-753
ential	-754
CO	-755
gen	-756
▁project	-757
ides	-758
velop	-759
▁serv	-760
ever	-761
▁case	-762
▁wavelength	-763
▁present	-764
▁includ	-765
▁electric	-766
▁ob	-767
ENT	-768
▁because	-769
▁consum	-770
tal	-771
pect	-772
IN	-773
da	-774
aus	-775
rol	-776
omes	-777
sol	-778
▁bas	-779
▁into	-780
damental	-781
ivid	-782
▁col	-783
ubric	-784
are	-785
▁rel	-786
▁oper	-787
▁less	-788
yd	-789
itiz	-790
▁hig	-791
▁meas	-792
ash	-793
ram	-794
ief	-795
reciation	-796
iber	-797
▁order	-798
▁environ	-799
put	-800
▁−	-801
▁lead	-802
mb	-803
ind	-804
▁ve	-805
▁each	-806
ND	-807
swer	-808
▁inde	-809
ack	-810
▁three	-811
▁leg	-812
▁total	-813
astic	-814
own	-815
ired	-816
▁	-817
▁sol	-818
▁factors	-819
▁Sab	-820
▁corrosion	-821
▁must	-822
▁Sabha	-823
▁mo	-824
▁surface	-825
▁const	-826
▁fixed	-827
▁Governor	-828
▁propert	-829
▁various	-830
IC	-831
ath	-832
ority	-833
▁some	-834
▁equation	-835
▁7	-836
▁import	-837
ail	-838
▁tra	-839
ble	-840
▁second	-841
king	-842
cil	-843
ouncil	-844
▁Un	-845
ines	-846
▁then	-847
hed	-848
ardness	-849
inal	-850
▁redu	-851
▁radi	-852
▁fre	-853
▁ret	-854
▁boil	-855
▁condition	-856
▁repres	-857
▁right	-858
lection	-859
▁High	-860
RE	-861
upreme	-862
arb	-863
▁citiz	-864
ices	-865
▁Inc	-866
ress	-867
▁tax	-868
▁ro	-869
ered	-870
▁temper	-871
▁was	-872
ract	-873
semb	-874
▁gas	-875
▁min	-876
▁occ	-877
ian	-878
ample	-879
▁country	-880
▁after	-881
▁known	-882
▁Supreme	-883
▁pay	-884
ives	-885
▁Comm	-886
▁pol	-887
2.	-888
▁Answer	-889
ile	-890
uel	-891
AR	-892
▁equal	-893
ruct	-894
▁laser	-895
air	-896
▁For	-897
▁Minister	-898
▁remo	-899
▁ox	-900
▁method	-901
ited	-902
▁el	-903
▁Ask	-904
▁appoint	-905
𝐸⃗⃗	-906
▁aut	-907
▁higher	-908
▁use	-909
▁been	-910
▁However	-911
not	-912
▁general	-913
cos	-914
ision	-915
▁organ	-916
▁them	-917
io	-918
ok	-919
▁ent	-920
ages	-921
ield	-922
▁Dep	-923
▁Su	-924
▁opt	-925
▁Thus	-926
▁On	-927
ife	-928
ctor	-929
AN	-930
▁Council	-931
▁Chief	-932
cent	-933
rent	-934
▁means	-935
1)	-936
▁direct	-937
▁K	-938
▁20	-939
▁electron	-940
te	-941
▁Bank	-942
▁depos	-943
▁sm	-944
▁get	-945
ular	-946
erve	-947
▁z	-948
▁very	-949
ances	-950
▁ar	-951
▁15	-952
ays	-953
▁ground	-954
▁lubric	-955
▁.	-956
▁med	-957
row	-958
▁flow	-959
▁cannot	-960
▁during	-961
cl	-962
.1	-963
ording	-964
ues	-965
▁To	-966
ends	-967
▁Act	-968
▁appro	-969
▁invest	-970
▁princi	-971
▁prop	-972
▁)	-973
▁contain	-974
▁tak	-975
▁prof	-976
3)	-977
par	-978
ertain	-979
▁main	-980
gineering	-981
▁electrons	-982
▁hel	-983
ingle	-984
ull	-985
▁Legislative	-986
ech	-987
▁atom	-988
ergency	-989
raction	-990
▁unit	-991
sembly	-992
▁free	-993
▁develop	-994
pend	-995
ared	-996
▁"	-997
MENT	-998
▁result	-999
ds	-1000
▁pur	-1001
ms	-1002
▁est	-1003
ecut	-1004
▁non	-1005
▁occur	-1006
ability	-1007
▁lo	-1008
▁Ca	-1009
▁fe	-1010
ulation	-1011
▁pe	-1012
▁phys	-1013
▁pass	-1014
ERS	-1015
stitut	-1016
▁vector	-1017
▁economic	-1018
alys	-1019
▁vol	-1020
▁pot	-1021
▁maj	-1022
▁Res	-1023
▁rise	-1024
erence	-1025
▁public	-1026
ural	-1027
rticle	-1028
▁centre	-1029
ero	-1030
▁No	-1031
…………	-1032
▁disc	-1033
eration	-1034
ydro	-1035
▁help	-1036
ribution	-1037
▁make	-1038
▁constant	-1039
▁who	-1040
▁life	-1041
▁important	-1042
rim	-1043
▁class	-1044
reat	-1045
isions	-1046
▁12	-1047
▁commodity	-1048
▁bu	-1049
▁dut	-1050
▁→	-1051
▁consist	-1052
ither	-1053
ology	-1054
▁small	-1055
▁adv	-1056
▁iv	-1057
▁allow	-1058
unic	-1059
▁resources	-1060
fer	-1061
▁made	-1062
duct	-1063
▁most	-1064
▁part	-1065
romag	-1066
▁consid	-1067
▁person	-1068
▁bill	-1069
▁sim	-1070
▁powers	-1071
▁calcul	-1072
▁50	-1073
▁long	-1074
▁optical	-1075
▁remain	-1076
∇⃗⃗	-1077
▁add	-1078
HE	-1079
▁decl	-1080
alysis	-1081
▁field	-1082
ume	-1083
▁again	-1084
ploy	-1085
▁cap	-1086
ros	-1087
quid	-1088
▁comb	-1089
ecutive	-1090
▁Ph	-1091
dust	-1092
ples	-1093
atic	-1094
ges	-1095
gram	-1096
ized	-1097
sure	-1098
ormal	-1099
▁sell	-1100
ffici	-1101
one	-1102
▁9	-1103
▁cre	-1104
▁waste	-1105
ises	-1106
▁Dis	-1107
▁dire	-1108
▁comple	-1109
▁house	-1110
▁elastic	-1111
▁property	-1112
arbon	-1113
▁di	-1114
ination	-1115
▁Legislature	-1116
ancial	-1117
▁before	-1118
▁depreciation	-1119
▁chemical	-1120
▁potential	-1121
▁work	-1122
ually	-1123
ption	-1124
▁caus	-1125
ople	-1126
▁Fun	-1127
ren	-1128
elect	-1129
oup	-1130
▁Mg	-1131
ration	-1132
▁does	-1133
▁	-1134
▁subject	-1135
▁temperature	-1136
▁above	-1137
SO	-1138
▁required	-1139
ize	-1140
▁	-1141
▁fiber	-1142
▁demanded	-1143
▁electromag	-1144
ude	-1145
▁ext	-1146
ified	-1147
▁types	-1148
▁ang	-1149
▁increases	-1150
▁return	-1151
▁legisl	-1152
tion	-1153
▁maximum	-1154
▁decreas	-1155
▁current	-1156
ring	-1157
uation	-1158
osp	-1159
ves	-1160
▁rec	-1161
flation	-1162
▁hand	-1163
▁gra	-1164
▁[	-1165
ATION	-1166
▁end	-1167
▁op	-1168
▁At	-1169
▁fuel	-1170
ygen	-1171
▁area	-1172
▁sec	-1173
▁poss	-1174
▁large	-1175
.2	-1176
hip	-1177
▁av	-1178
acter	-1179
▁hardness	-1180
aj	-1181
▁well	-1182
▁relation	-1183
▁THE	-1184
ries	-1185
▁Cost	-1186
als	-1187
▁dissol	-1188
▁Em	-1189
▁sa	-1190
▁Sp	-1191
▁exc	-1192
cies	-1193
▁single	-1194
art	-1195
▁fall	-1196
▁need	-1197
),	-1198
----	-1199
▁Acc	-1200
cosystem	-1201
▁laws	-1202
echn	-1203
▁minim	-1204
ference	-1205
▁people	-1206
▁frequ	-1207
▁represent	-1208
2,	-1209
ward	-1210
▁employ	-1211
vent	-1212
anch	-1213
▁environment	-1214
▁asset	-1215
▁pop	-1216
ake	-1217
cal	-1218
▁perf	-1219
▁integ	-1220
ividual	-1221
icy	-1222
▁position	-1223
Cl	-1224
▁cat	-1225
▁rights	-1226
▁Indian	-1227
▁intensity	-1228
reak	-1229
▁medium	-1230
▁Assembly	-1231
man	-1232
IT	-1233
ically	-1234
▁mag	-1235
ression	-1236
▁services	-1237
ful	-1238
▁sit	-1239
▁either	-1240
▁sl	-1241
▁Pric	-1242
▁electromagnetic	-1243
▁measure	-1244
▁liquid	-1245
▁index	-1246
▁group	-1247
oelect	-1248
▁difference	-1249
inet	-1250
▁Ministers	-1251
▁cour	-1252
▁Princi	-1253
▁ann	-1254
▁worth	-1255
▁control	-1256
iii	-1257
ood	-1258
ality	-1259
▁auth	-1260
▁angle	-1261
ructure	-1262
▁Ne	-1263
▁fundamental	-1264
▁Al	-1265
ension	-1266
▁incident	-1267
▁Re	-1268
▁ear	-1269
▁fil	-1270
▁Law	-1271
▁mod	-1272
▁scal	-1273
▁boiler	-1274
ortion	-1275
▁direction	-1276
abinet	-1277
4)	-1278
ving	-1279
▁within	-1280
rite	-1281
ival	-1282
▁ministers	-1283
ord	-1284
▁show	-1285
▁Elect	-1286
▁citizens	-1287
▁individual	-1288
▁rea	-1289
ization	-1290
▁sign	-1291
▁radiation	-1292
itude	-1293
▁our	-1294
▁lower	-1295
▁national	-1296
▁materials	-1297
ats	-1298
▁respect	-1299
▁ele	-1300
▁dia	-1301
▁grating	-1302
lu	-1303
hes	-1304
▁activ	-1305
1,	-1306
1.	-1307
▁indust	-1308
▁Government	-1309
▁ST	-1310
change	-1311
▁functions	-1312
▁National	-1313
ustice	-1314
15	-1315
▁hydro	-1316
▁Article	-1317
ters	-1318
▁Find	-1319
▁Am	-1320
▁2)	-1321
ital	-1322
▁shall	-1323
▁altern	-1324
▁Calcul	-1325
▁duties	-1326
aves	-1327
▁down	-1328
▁contin	-1329
.,	-1330
▁abs	-1331
▁without	-1332
▁>	-1333
ody	-1334
atural	-1335
ases	-1336
▁	-1337
cer	-1338
cle	-1339
▁Max	-1340
▁According	-1341
▁Lok	-1342
________	-1343
▁against	-1344
ONS	-1345
pers	-1346
▁investment	-1347
▁elasticity	-1348
▁crit	-1349
▁chang	-1350
▁matter	-1351
itted	-1352
▁below	-1353
▁𝐸⃗⃗	-1354
ck	-1355
aracter	-1356
▁appl	-1357
▁adm	-1358
atter	-1359
ising	-1360
OR	-1361
▁1)	-1362
enef	-1363
▁Price	-1364
iness	-1365
redit	-1366
UN	-1367
▁financial	-1368
abl	-1369
▁lim	-1370
▁Cabinet	-1371
▁emission	-1372
▁place	-1373
ource	-1374
00,000	-1375
▁physical	-1376
▁economy	-1377
ross	-1378
▁PO	-1379
▁rat	-1380
▁line	-1381
IA	-1382
▁Sol	-1383
atures	-1384
▁PR	-1385
▁Pri	-1386
▁rest	-1387
▁cash	-1388
▁diagram	-1389
20	-1390
▁analysis	-1391
▁pressure	-1392
ator	-1393
ided	-1394
osed	-1395
well	-1396
▁AND	-1397
▁2.	-1398
▁output	-1399
AC	-1400
▁member	-1401
reatment	-1402
urb	-1403
▁Dem	-1404
pose	-1405
▁sum	-1406
▁Income	-1407
▁conditions	-1408
▁take	-1409
▁Constitution	-1410
▁We	-1411
▁fore	-1412
▁compound	-1413
other	-1414
▁appointed	-1415
▁fig	-1416
▁profit	-1417
▁prot	-1418
▁	-1419
▁normal	-1420
ted	-1421
▁new	-1422
▁Maxwell	-1423
UR	-1424
▁De	-1425
▁population	-1426
0.	-1427
wn	-1428
rig	-1429
▁des	-1430
▁vot	-1431
urther	-1432
▁minister	-1433
▁provisions	-1434
▁By	-1435
▁Spe	-1436
▁Mon	-1437
icial	-1438
rop	-1439
▁while	-1440
▁fed	-1441
▁administ	-1442
▁meet	-1443
▁atoms	-1444
yl	-1445
▁hold	-1446
anchay	-1447
▁majority	-1448
aries	-1449
▁mass	-1450
uch	-1451
100	-1452
▁becomes	-1453
ism	-1454
▁variable	-1455
▁Int	-1456
▁Direct	-1457
▁effici	-1458
cu	-1459
▁Raj	-1460
aving	-1461
▁Write	-1462
▁every	-1463
▁vi	-1464
▁conver	-1465
▁agg	-1466
oints	-1467
▁Calculate	-1468
ick	-1469
▁certain	-1470
▁po	-1471
ternal	-1472
▁photon	-1473
▁removed	-1474
▁elected	-1475
▁set	-1476
ining	-1477
▁combust	-1478
▁frequency	-1479
▁car	-1480
▁provides	-1481
ron	-1482
▁acid	-1483
CI	-1484
▁q	-1485
▁OP	-1486
▁produced	-1487
▁loc	-1488
ft	-1489
▁avail	-1490
▁Engineering	-1491
𝐻⃗⃗	-1492
▁ampl	-1493
alth	-1494
etary	-1495
itive	-1496
▁𝐴	-1497
▁Equ	-1498
▁buy	-1499
▁Na	-1500
▁invol	-1501
▁consumer	-1502
▁accept	-1503
▁relations	-1504
reg	-1505
▁iss	-1506
▁resp	-1507
▁parts	-1508
cing	-1509
▁equival	-1510
▁Cont	-1511
ode	-1512
▁affect	-1513
icro	-1514
,10	-1515
▁poll	-1516
▁prep	-1517
▁depends	-1518
uman	-1519
▁source	-1520
▁25	-1521
▁stud	-1522
▁photoelect	-1523
▁economics	-1524
▁particular	-1525
imes	-1526
▁special	-1527
▁formed	-1528
▁ecosystem	-1529
5)	-1530
▁	-1531
▁judge	-1532
▁consists	-1533
▁Wh	-1534
even	-1535
ended	-1536
▁rece	-1537
▁Fundamental	-1538
▁terms	-1539
▁using	-1540
▁reas	-1541
lor	-1542
▁30	-1543
▁⃗⃗	-1544
▁Prime	-1545
▁would	-1546
▁excited	-1547
ning	-1548
▁net	-1549
▁court	-1550
▁credit	-1551
▁Ad	-1552
▁size	-1553
▁foreign	-1554
▁activities	-1555
RR	-1556
▁𝑑	-1557
ATE	-1558
ping	-1559
▁	-1560
▁neg	-1561
▁banks	-1562
▁waves	-1563
stitute	-1564
▁deposits	-1565
▁saf	-1566
iture	-1567
▁inst	-1568
▁short	-1569
▁Commission	-1570
ty	-1571
▁establ	-1572
get	-1573
▁central	-1574
▁spect	-1575
▁PW	-1576
vant	-1577
▁volume	-1578
▁were	-1579
▁space	-1580
▁expression	-1581
▁att	-1582
▁character	-1583
ily	-1584
▁3)	-1585
▁theory	-1586
▁panchay	-1587
▁formation	-1588
,?	-1589
ibri	-1590
ince	-1591
▁run	-1592
ibrium	-1593
ilibrium	-1594
pal	-1595
▁POW	-1596
▁interference	-1597
▁maxima	-1598
▁ions	-1599
▁Demand	-1600
▁Emergency	-1601
ilar	-1602
vers	-1603
▁protect	-1604
▁body	-1605
▁House	-1606
▁compon	-1607
OH	-1608
IST	-1609
por	-1610
verse	-1611
▁X	-1612
EC	-1613
uture	-1614
▁intern	-1615
ety	-1616
▁Reserve	-1617
▁3.	-1618
▁core	-1619
▁stage	-1620
▁Hence	-1621
▁techn	-1622
ormation	-1623
▁defined	-1624
ya	-1625
edom	-1626
▁much	-1627
▁occurs	-1628
3.	-1629
oss	-1630
ivity	-1631
▁many	-1632
▁equilibrium	-1633
kes	-1634
iding	-1635
▁oxygen	-1636
▁subjects	-1637
▁executive	-1638
▁∇⃗⃗	-1639
▁subst	-1640
▁diffraction	-1641
▁polit	-1642
alance	-1643
▁includes	-1644
ctane	-1645
▁minimum	-1646
▁development	-1647
herent	-1648
▁spec	-1649
▁measures	-1650
iew	-1651
▁sod	-1652
edu	-1653
▁products	-1654
▁air	-1655
▁zero	-1656
VE	-1657
gl	-1658
▁ste	-1659
▁charg	-1660
vironmental	-1661
▁values	-1662
erc	-1663
▁independ	-1664
amet	-1665
▁full	-1666
unity	-1667
▁....	-1668
▁added	-1669
▁ratio	-1670
▁salts	-1671
▁service	-1672
ised	-1673
:-	-1674
▁10%	-1675
ulated	-1676
▁expend	-1677
▁disch	-1678
▁prepared	-1679
▁1,	-1680
▁respons	-1681
version	-1682
▁social	-1683
▁exchange	-1684
IG	-1685
▁From	-1686
▁eas	-1687
▁common	-1688
OD	-1689
▁𝜕𝑡	-1690
aces	-1691
▁head	-1692
▁land	-1693
▁Rajya	-1694
▁speed	-1695
▁produce	-1696
▁(1	-1697
▁14	-1698
▁real	-1699
▁six	-1700
itial	-1701
▁being	-1702
ights	-1703
▁benef	-1704
▁exist	-1705
SI	-1706
▁matters	-1707
▁distribution	-1708
ently	-1709
▁General	-1710
▁collect	-1711
az	-1712
▁Right	-1713
▁super	-1714
▁Econom	-1715
▁shif	-1716
ractive	-1717
▁charge	-1718
ological	-1719
▁Example	-1720
▁negative	-1721
▁Inflation	-1722
TU	-1723
▁upon	-1724
▁alk	-1725
ished	-1726
▁organic	-1727
▁magnetic	-1728
▁those	-1729
▁percent	-1730
▁emergency	-1731
▁combustion	-1732
ison	-1733
▁taxes	-1734
▁POWERS	-1735
ob	-1736
▁IN	-1737
tained	-1738
▁five	-1739
▁along	-1740
▁based	-1741
▁scale	-1742
▁determined	-1743
▁supplied	-1744
omm	-1745
position	-1746
▁18	-1747
▁cal	-1748
▁available	-1749
▁give	-1750
itable	-1751
▁separ	-1752
▁200	-1753
▁Pol	-1754
atives	-1755
▁solid	-1756
ier	-1757
▁month	-1758
lf	-1759
▁wid	-1760
▁shown	-1761
▁Therefore	-1762
𝑤𝑡	-1763
usiness	-1764
rease	-1765
▁Water	-1766
▁aggreg	-1767
imension	-1768
▁commodities	-1769
▁him	-1770
ressed	-1771
EM	-1772
▁Pl	-1773
▁oils	-1774
▁shows	-1775
▁cathod	-1776
▁Principles	-1777
▁nom	-1778
▁even	-1779
▁equivalent	-1780
▁human	-1781
▁election	-1782
▁possible	-1783
▁Y	-1784
ocity	-1785
unicip	-1786
▁photons	-1787
acity	-1788
▁Policy	-1789
ned	-1790
▁All	-1791
▁beam	-1792
▁Or	-1793
azard	-1794
▁makes	-1795
▁transm	-1796
▁prom	-1797
▁regard	-1798
▁Directive	-1799
▁expenditure	-1800
▁among	-1801
ilities	-1802
▁addition	-1803
ounts	-1804
for	-1805
pon	-1806
▁gu	-1807
▁role	-1808
▁decision	-1809
▁political	-1810
ex	-1811
▁gre	-1812
▁proportion	-1813
12	-1814
place	-1815
▁citizen	-1816
▁purpose	-1817
fill	-1818
▁aggregate	-1819
▁16	-1820
▁chain	-1821
ively	-1822
▁film	-1823
▁directly	-1824
uls	-1825
▁ter	-1826
▁cell	-1827
▁cy	-1828
iss	-1829
▁gen	-1830
erated	-1831
▁units	-1832
▁Environmental	-1833
ee	-1834
𝐵⃗⃗	-1835
▁shift	-1836
▁transfer	-1837
▁efficiency	-1838
cip	-1839
▁fac	-1840
▁sul	-1841
▁CONS	-1842
▁rings	-1843
▁situation	-1844
ting	-1845
▁leads	-1846
ceed	-1847
▁find	-1848
▁example	-1849
▁Fin	-1850
▁vel	-1851
▁future	-1852
vantages	-1853
▁Vice	-1854
TIVE	-1855
mosp	-1856
▁pri	-1857
▁compar	-1858
▁mole	-1859
▁taken	-1860
▁	-1861
rict	-1862
▁Cent	-1863
▁engine	-1864
▁engineering	-1865
8)	-1866
▁takes	-1867
▁nature	-1868
▁structure	-1869
ED	-1870
▁Sc	-1871
eries	-1872
▁opp	-1873
▁writ	-1874
▁basis	-1875
▁(2	-1876
arginal	-1877
▁municip	-1878
▁emitted	-1879
▁generally	-1880
▁falls	-1881
ally	-1882
duction	-1883
▁metals	-1884
otal	-1885
▁Justice	-1886
ton	-1887
▁federal	-1888
▁dissolved	-1889
▁treatment	-1890
▁democ	-1891
▁local	-1892
endment	-1893
▁legislative	-1894
▁relationship	-1895
inate	-1896
INIST	-1897
placement	-1898
by	-1899
arm	-1900
▁Cons	-1901
▁absor	-1902
▁removal	-1903
▁𝐻⃗⃗	-1904
▁levels	-1905
▁solution	-1906
ITY	-1907
any	-1908
▁orig	-1909
▁density	-1910
▁2000	-1911
▁oath	-1912
▁business	-1913
▁environmental	-1914
▁sound	-1915
▁Gr	-1916
igen	-1917
ories	-1918
▁Pb	-1919
▁pet	-1920
▁expect	-1921
▁external	-1922
▁New	-1923
▁pat	-1924
▁exerc	-1925
▁IRR	-1926
▁contains	-1927
▁×	-1928
▁(2)	-1929
▁dispers	-1930
▁velocity	-1931
hold	-1932
▁territ	-1933
▁electro	-1934
hib	-1935
idence	-1936
▁........	-1937
▁equations	-1938
▁concer	-1939
▁Qu	-1940
▁Pre	-1941
▁union	-1942
▁MINIST	-1943
▁principal	-1944
▁sat	-1945
stitu	-1946
▁purch	-1947
aneous	-1948
▁cause	-1949
▁applic	-1950
▁propag	-1951
▁natural	-1952
▁employment	-1953
▁soap	-1954
▁divid	-1955
▁width	-1956
rticles	-1957
▁Product	-1958
water	-1959
▁STATE	-1960
ruction	-1961
▁account	-1962
▁refractive	-1963
ludge	-1964
lement	-1965
▁Where	-1966
▁provide	-1967
sequ	-1968
icult	-1969
▁proble	-1970
▁positive	-1971
PP	-1972
▁vac	-1973
▁type	-1974
▁times	-1975
▁sources	-1976
aker	-1977
side	-1978
▁back	-1979
▁Chair	-1980
ock	-1981
▁⃗⃗⃗⃗	-1982
▁region	-1983
▁prevent	-1984
▁increasing	-1985
▁Depreciation	-1986
▁reflect	-1987
▁reaction	-1988
ule	-1989
rial	-1990
▁step	-1991
▁refer	-1992
▁principle	-1993
▁4)	-1994
uous	-1995
ameter	-1996
▁course	-1997
▁judges	-1998
ene	-1999
verage	-2000
▁cir	-2001
▁assum	-2002
▁bl	-2003
▁reason	-2004
edi	-2005
ires	-2006
▁determine	-2007
▁increased	-2008
ware	-2009
▁soil	-2010
istics	-2011
▁deposit	-2012
▁Sal	-2013
▁conf	-2014
▁Rights	-2015
ilic	-2016
▁beh	-2017
▁changes	-2018
▁Sh	-2019
▁lab	-2020
▁another	-2021
essential	-2022
▁relative	-2023
▁path	-2024
▁prob	-2025
den	-2026
▁having	-2027
▁eq	-2028
TITU	-2029
▁done	-2030
▁persons	-2031
▁CONSTITU	-2032
▁cle	-2033
ercial	-2034
NP	-2035
▁how	-2036
▁acts	-2037
▁Under	-2038
▁perfect	-2039
▁internal	-2040
bic	-2041
▁amplitude	-2042
▁depend	-2043
▁conduct	-2044
encies	-2045
▁balance	-2046
▁authority	-2047
▁particles	-2048
led	-2049
▁ax	-2050
▁cust	-2051
▁mean	-2052
▁Compt	-2053
▁sw	-2054
▁own	-2055
▁Executive	-2056
▁secondary	-2057
ner	-2058
▁che	-2059
▁represents	-2060
▁mg	-2061
▁(1)	-2062
▁fring	-2063
omestic	-2064
▁annual	-2065
imate	-2066
%,	-2067
▁fl	-2068
▁ign	-2069
otion	-2070
▁capital	-2071
isms	-2072
▁regul	-2073
▁heat	-2074
raight	-2075
▁Ann	-2076
▁move	-2077
uted	-2078
rimary	-2079
▁usually	-2080
▁information	-2081
ote	-2082
ying	-2083
▁Such	-2084
▁passed	-2085
▁follows	-2086
ification	-2087
500	-2088
▁four	-2089
▁found	-2090
▁batter	-2091
uss	-2092
▁Us	-2093
▁Break	-2094
▁integral	-2095
):	-2096
▁mach	-2097
arri	-2098
▁Ass	-2099
▁impro	-2100
raw	-2101
▁loss	-2102
▁/	-2103
▁costs	-2104
tection	-2105
isf	-2106
roll	-2107
iform	-2108
▁constitutional	-2109
EG	-2110
▁𝑒	-2111
att	-2112
hedul	-2113
▁compet	-2114
▁Hardness	-2115
centration	-2116
▁parliament	-2117
▁Ag	-2118
▁br	-2119
cipit	-2120
▁precipit	-2121
40	-2122
▁Me	-2123
▁Det	-2124
▁Now	-2125
itting	-2126
▁start	-2127
▁difficult	-2128
LA	-2129
▁BOD	-2130
▁break	-2131
▁independent	-2132
OV	-2133
▁major	-2134
▁phase	-2135
▁necess	-2136
6)	-2137
▁gases	-2138
▁except	-2139
▁allowances	-2140
hate	-2141
▁Se	-2142
rans	-2143
▁oxid	-2144
▁stand	-2145
▁length	-2146
▁fast	-2147
erobic	-2148
▁greater	-2149
▁operation	-2150
▁panchayats	-2151
▁author	-2152
▁components	-2153
▁5)	-2154
▁ec	-2155
▁perform	-2156
▁photoelectric	-2157
▁phen	-2158
reen	-2159
▁enfor	-2160
▁quest	-2161
▁ord	-2162
▁forms	-2163
osition	-2164
▁Chairman	-2165
▁communic	-2166
CTION	-2167
ccess	-2168
▁name	-2169
▁priv	-2170
▁react	-2171
▁freedom	-2172
▁essential	-2173
▁lubricants	-2174
▁Its	-2175
▁sales	-2176
agement	-2177
azardous	-2178
▁discharge	-2179
▁chlor	-2180
▁suitable	-2181
ID	-2182
equ	-2183
ild	-2184
uty	-2185
▁Per	-2186
▁unc	-2187
▁courts	-2188
▁rising	-2189
,10,	-2190
▁sus	-2191
▁whe	-2192
▁supp	-2193
▁firm	-2194
▁grow	-2195
▁After	-2196
▁exper	-2197
▁considered	-2198
5.	-2199
▁recomm	-2200
▁monetary	-2201
▁consumption	-2202
▁Fixed	-2203
▁eigen	-2204
▁reserv	-2205
▁projects	-2206
▁CONSTITUTION	-2207
▁deb	-2208
reases	-2209
▁graph	-2210
▁legislature	-2211
7)	-2212
omen	-2213
▁Sim	-2214
▁micro	-2215
▁countries	-2216
auss	-2217
▁Met	-2218
▁PAR	-2219
▁Gauss	-2220
▁provided	-2221
▁provision	-2222
OM	-2223
ateg	-2224
▁bor	-2225
▁lay	-2226
▁mix	-2227
▁Some	-2228
▁Total	-2229
President	-2230
▁signific	-2231
▁electrical	-2232
nes	-2233
que	-2234
▁rul	-2235
▁payments	-2236
▁effective	-2237
dic	-2238
ften	-2239
less	-2240
▁tend	-2241
▁proced	-2242
▁CaCO	-2243
▁gets	-2244
▁Factor	-2245
▁custom	-2246
▁presence	-2247
▁compounds	-2248
chan	-2249
umping	-2250
olution	-2251
▁Newton	-2252
▁mechan	-2253
𝑖(	-2254
ully	-2255
▁mult	-2256
▁Deputy	-2257
ins	-2258
▁secur	-2259
▁complete	-2260
30	-2261
HCO	-2262
ynt	-2263
0000	-2264
▁adj	-2265
▁formul	-2266
▁distance	-2267
▁marginal	-2268
▁properties	-2269
ganic	-2270
▁Union	-2271
▁alternative	-2272
adding	-2273
▁decrease	-2274
Na	-2275
▁Here	-2276
▁food	-2277
▁Further	-2278
cium	-2279
respon	-2280
ior	-2281
port	-2282
▁Banks	-2283
▁limit	-2284
▁causes	-2285
ata	-2286
raph	-2287
)=	-2288
▁enj	-2289
▁success	-2290
LIA	-2291
▁Co	-2292
iving	-2293
▁issue	-2294
LIAMENT	-2295
▁pattern	-2296
▁uncertain	-2297
▁PARLIAMENT	-2298
▁Ar	-2299
▁species	-2300
▁approach	-2301
16	-2302
▁Central	-2303
▁Compton	-2304
▁require	-2305
▁displacement	-2306
▁Effect	-2307
▁Energy	-2308
▁resign	-2309
▁effects	-2310
2-	-2311
TS	-2312
▁figure	-2313
▁octane	-2314
▁series	-2315
▁according	-2316
fully	-2317
▁stren	-2318
URE	-2319
▁(∇⃗⃗	-2320
▁Since	-2321
▁experi	-2322
▁initial	-2323
▁straight	-2324
▁pollution	-2325
vere	-2326
▁axis	-2327
▁Determ	-2328
▁Market	-2329
▁integr	-2330
▁points	-2331
▁operating	-2332
▁adop	-2333
▁und	-2334
▁open	-2335
▁During	-2336
rons	-2337
▁Comp	-2338
▁sche	-2339
chie	-2340
▁hen	-2341
▁achie	-2342
▁capacity	-2343
uris	-2344
urisdic	-2345
ike	-2346
ush	-2347
ention	-2348
▁reven	-2349
▁10-	-2350
▁	-2351
tenance	-2352
▁concerned	-2353
▁SO	-2354
ouses	-2355
▁Pres	-2356
▁hence	-2357
'.	-2358
LE	-2359
▁II	-2360
▁Jud	-2361
▁obs	-2362
cular	-2363
▁include	-2364
ead	-2365
▁Im	-2366
▁day	-2367
▁caused	-2368
▁correspon	-2369
▁sodium	-2370
dule	-2371
▁Num	-2372
oment	-2373
▁Supp	-2374
▁Public	-2375
▁diameter	-2376
▁surfaces	-2377
udit	-2378
▁slit	-2379
▁banking	-2380
▁4.	-2381
▁policy	-2382
▁methods	-2383
▁remaining	-2384
▁cr	-2385
▁LEG	-2386
▁Why	-2387
▁Brit	-2388
▁uniform	-2389
ox	-2390
view	-2391
▁Typ	-2392
45	-2393
▁Fuel	-2394
▁carbon	-2395
imulated	-2396
▁discuss	-2397
EL	-2398
▁Cor	-2399
▁Speaker	-2400
▁related	-2401
▁Interest	-2402
3,	-2403
UAL	-2404
▁fib	-2405
▁Then	-2406
soci	-2407
▁der	-2408
ection	-2409
ipment	-2410
▁Trans	-2411
▁associ	-2412
▁dimension	-2413
▁𝑘	-2414
▁categ	-2415
▁gives	-2416
urisdiction	-2417
oid	-2418
omentum	-2419
aid	-2420
read	-2421
inite	-2422
wards	-2423
▁Plan	-2424
▁Z	-2425
▁basic	-2426
▁trade	-2427
ults	-2428
▁resultant	-2429
▁transition	-2430
𝑖𝑛	-2431
FIC	-2432
▁way	-2433
▁pract	-2434
▁world	-2435
▁40	-2436
clus	-2437
▁250	-2438
econom	-2439
▁few	-2440
▁Poll	-2441
▁commercial	-2442
▁(3)	-2443
▁bri	-2444
▁object	-2445
▁calculate	-2446
▁necessary	-2447
iesel	-2448
▁Phot	-2449
arrier	-2450
inated	-2451
▁moving	-2452
▁satisf	-2453
In	-2454
▁deg	-2455
▁sin	-2456
▁areas	-2457
▁refers	-2458
▁schedul	-2459
UD	-2460
oys	-2461
▁FUN	-2462
▁List	-2463
▁observ	-2464
rictions	-2465
……………………	-2466
▁quantum	-2467
▁FUNCTION	-2468
________________	-2469
ENC	-2470
▁age	-2471
▁1000	-2472
astable	-2473
▁decreases	-2474
▁input	-2475
▁loans	-2476
▁sludge	-2477
▁similar	-2478
▁diver	-2479
▁groups	-2480
nel	-2481
umn	-2482
omet	-2483
▁cos	-2484
▁steam	-2485
▁become	-2486
▁thereby	-2487
▁momentum	-2488
▁inversion	-2489
▁vis	-2490
▁reduce	-2491
▁FUNCTIONS	-2492
𝑘𝑥	-2493
▁EAC	-2494
▁ray	-2495
▁Waste	-2496
▁create	-2497
▁consider	-2498
waste	-2499
▁Diff	-2500
▁50,000	-2501
▁excess	-2502
4.	-2503
Rs	-2504
ont	-2505
▁gl	-2506
▁plane	-2507
▁words	-2508
▁question	-2509
▁decisions	-2510
▁reactions	-2511
ived	-2512
▁rub	-2513
▁judicial	-2514
▁temperatures	-2515
60	-2516
▁Each	-2517
▁Annual	-2518
.𝑟	-2519
80	-2520
▁LEGIS	-2521
▁bound	-2522
▁wages	-2523
▁results	-2524
▁phenomen	-2525
▁strength	-2526
▁courseware	-2527
alf	-2528
▁simple	-2529
▁fav	-2530
▁ten	-2531
arily	-2532
gence	-2533
▁further	-2534
▁..........	-2535
AS	-2536
ute	-2537
▁eV	-2538
ears	-2539
▁Net	-2540
▁relig	-2541
▁motion	-2542
75	-2543
▁ion	-2544
▁eval	-2545
▁black	-2546
▁months	-2547
aly	-2548
ture	-2549
▁perm	-2550
▁anode	-2551
▁Suppose	-2552
▁established	-2553
▁Let	-2554
▁unt	-2555
▁𝑒𝑖(	-2556
▁soci	-2557
▁easily	-2558
)2	-2559
▁Sub	-2560
▁atmosp	-2561
▁restrictions	-2562
ird	-2563
iner	-2564
▁influ	-2565
▁height	-2566
▁helps	-2567
▁intro	-2568
vention	-2569
rad	-2570
▁Wave	-2571
TIC	-2572
▁action	-2573
EE	-2574
▁	-2575
▁box	-2576
▁dark	-2577
▁pair	-2578
▁plan	-2579
▁stat	-2580
▁Silic	-2581
▁assets	-2582
▁Å	-2583
▁IND	-2584
▁flu	-2585
ately	-2586
▁barrier	-2587
▁λ	-2588
ees	-2589
vage	-2590
▁Cal	-2591
▁slow	-2592
▁estim	-2593
▁Process	-2594
▁content	-2595
ivers	-2596
▁Every	-2597
▁Propert	-2598
▁𝜆	-2599
▁5.	-2600
▁fa	-2601
istic	-2602
▁poly	-2603
▁whole	-2604
perture	-2605
▁hydrogen	-2606
▁expressed	-2607
erical	-2608
▁thick	-2609
▁useful	-2610
▁written	-2611
IGH	-2612
MER	-2613
itr	-2614
▁comparison	-2615
▁bi	-2616
▁absorb	-2617
▁possess	-2618
▁customers	-2619
racy	-2620
▁column	-2621
▁cathode	-2622
▁lubricant	-2623
▁metastable	-2624
4,	-2625
▁0.00	-2626
▁payment	-2627
▁protection	-2628
▁deals	-2629
▁TO	-2630
onom	-2631
▁Bef	-2632
▁Before	-2633
▁select	-2634
▁municipal	-2635
▁sett	-2636
▁schedule	-2637
▁governments	-2638
▁communication	-2639
inary	-2640
▁accord	-2641
▁obtained	-2642
▁industrial	-2643
,.	-2644
▁θ	-2645
𝑘.𝑟	-2646
▁Bill	-2647
▁Rate	-2648
▁divided	-2649
ling	-2650
▁Man	-2651
▁involves	-2652
▁quantities	-2653
educ	-2654
▁educ	-2655
▁resist	-2656
▁fringes	-2657
▁physics	-2658
day	-2659
aced	-2660
▁turn	-2661
▁viol	-2662
▁range	-2663
95	-2664
leum	-2665
roleum	-2666
▁alkal	-2667
▁greases	-2668
eol	-2669
eria	-2670
▁encl	-2671
▁list	-2672
▁agent	-2673
▁borrow	-2674
▁soften	-2675
▁describ	-2676
cers	-2677
▁Prof	-2678
▁sovere	-2679
▁British	-2680
▁quality	-2681
▁%	-2682
uble	-2683
▁goes	-2684
▁bills	-2685
Article	-2686
▁though	-2687
▁Natural	-2688
▁included	-2689
ANC	-2690
ARR	-2691
app	-2692
▁𝐵⃗⃗	-2693
▁profits	-2694
▁continuous	-2695
35	-2696
sec	-2697
▁UN	-2698
▁indic	-2699
▁travel	-2700
▁weight	-2701
▁classified	-2702
▁<	-2703
▁√	-2704
apor	-2705
▁imm	-2706
▁carry	-2707
7,	-2708
▁;	-2709
200	-2710
▁side	-2711
▁stimulated	-2712
▁respectively	-2713
▁living	-2714
▁divergence	-2715
▁Ec	-2716
▁cm	-2717
wise	-2718
▁GNP	-2719
ittee	-2720
▁reduces	-2721
+2	-2722
▁60	-2723
▁Ob	-2724
▁larg	-2725
ishing	-2726
▁Analysis	-2727
▁ill	-2728
▁hard	-2729
▁Money	-2730
▁Techn	-2731
,00,000	-2732
▁company	-2733
▁responsible	-2734
ope	-2735
▁dest	-2736
▁earn	-2737
▁contact	-2738
▁accordance	-2739
𝑤𝑡−	-2740
𝑘.𝑟)	-2741
▁whose	-2742
▁𝑒𝑖(𝑤𝑡−	-2743
▁Silicon	-2744
advantages	-2745
▁Structure	-2746
▁𝑒𝑖(𝑤𝑡−𝑘.𝑟)	-2747
▁Fe	-2748
▁Ox	-2749
amble	-2750
stand	-2751
▁duty	-2752
▁consumers	-2753
▁equipment	-2754
▁left	-2755
▁aperture	-2756
▁cladding	-2757
▁elections	-2758
𝑠𝑖𝑛	-2759
SION	-2760
▁emp	-2761
asure	-2762
▁Dist	-2763
urrent	-2764
pts	-2765
hibit	-2766
▁seats	-2767
▁manner	-2768
▁pumping	-2769
▁phenomenon	-2770
road	-2771
▁COM	-2772
▁raw	-2773
ricult	-2774
▁flows	-2775
▁Lubric	-2776
▁health	-2777
▁maintenance	-2778
SW	-2779
▁Fre	-2780
▁MSW	-2781
ratic	-2782
▁jurisdiction	-2783
3)2	-2784
▁dev	-2785
▁red	-2786
asing	-2787
▁often	-2788
ibility	-2789
▁disturb	-2790
▁formula	-2791
▁associated	-2792
▁institution	-2793
idity	-2794
▁harm	-2795
▁(∇⃗⃗×	-2796
▁opport	-2797
▁proceed	-2798
▁processes	-2799
90	-2800
▁too	-2801
udget	-2802
▁Laws	-2803
▁Vari	-2804
isture	-2805
▁procedure	-2806
▁ut	-2807
▁500	-2808
▁rates	-2809
▁benefit	-2810
▁justice	-2811
▁consisting	-2812
▁Fig	-2813
▁Non	-2814
▁temp	-2815
action	-2816
▁growth	-2817
Bro	-2818
ink	-2819
ott	-2820
self	-2821
▁ide	-2822
▁salaries	-2823
▁te	-2824
▁days	-2825
▁expl	-2826
ession	-2827
▁design	-2828
islation	-2829
▁MINISTERS	-2830
▁substances	-2831
3(	-2832
▁	-2833
▁Cl	-2834
ites	-2835
cling	-2836
▁Types	-2837
▁Special	-2838
ochemical	-2839
7.	-2840
▁400	-2841
▁rule	-2842
cosity	-2843
▁rises	-2844
▁Economics	-2845
ased	-2846
ucle	-2847
▁dil	-2848
▁Hydro	-2849
▁clear	-2850
▁accounts	-2851
ilit	-2852
ways	-2853
round	-2854
▁alloc	-2855
▁battery	-2856
ght	-2857
pid	-2858
rum	-2859
rect	-2860
▁play	-2861
▁∇⃗⃗×	-2862
▁ensure	-2863
▁substitute	-2864
AB	-2865
leg	-2866
back	-2867
▁impl	-2868
▁liber	-2869
▁inputs	-2870
▁technology	-2871
▁eng	-2872
▁systems	-2873
▁contents	-2874
▁wastewater	-2875
▁ke	-2876
▁lit	-2877
▁Serv	-2878
▁safe	-2879
alified	-2880
aration	-2881
▁enforce	-2882
▁primary	-2883
▁reduced	-2884
▁reserve	-2885
▁Determine	-2886
2+	-2887
68	-2888
glie	-2889
▁vote	-2890
▁𝑖	-2891
ARY	-2892
▁Bo	-2893
astes	-2894
▁bear	-2895
▁salt	-2896
▁study	-2897
uations	-2898
▁hydroc	-2899
▁average	-2900
▁alternatives	-2901
ps	-2902
fect	-2903
▁diesel	-2904
▁wealth	-2905
▁fraction	-2906
▁containing	-2907
▁facilities	-2908
25	-2909
PO	-2910
▁𝑛	-2911
▁150	-2912
▁see	-2913
▁Show	-2914
▁working	-2915
𝑘𝑥−	-2916
apse	-2917
▁lines	-2918
▁System	-2919
▁organisms	-2920
ret	-2921
▁Ac	-2922
▁held	-2923
ulsion	-2924
▁disqu	-2925
▁Planck	-2926
▁favour	-2927
70	-2928
▁11	-2929
orem	-2930
otic	-2931
rawn	-2932
posal	-2933
▁proper	-2934
▁recommend	-2935
▁concentration	-2936
inity	-2937
▁faith	-2938
▁charges	-2939
▁chlorine	-2940
▁including	-2941
▁Disadvantages	-2942
did	-2943
▁ce	-2944
,000)	-2945
▁candid	-2946
▁critic	-2947
▁problem	-2948
▁producers	-2949
IB	-2950
oynt	-2951
▁Tax	-2952
orific	-2953
▁Poynt	-2954
▁Poynting	-2955
▁Fuels	-2956
▁making	-2957
▁mixture	-2958
ontaneous	-2959
▁𝐴2	-2960
itives	-2961
stituent	-2962
▁causing	-2963
▁Ecosystem	-2964
ern	-2965
▁Rem	-2966
cepts	-2967
▁data	-2968
▁Phase	-2969
▁extent	-2970
▁grounds	-2971
▁measured	-2972
▁transmission	-2973
▁lens	-2974
▁Laser	-2975
▁Quant	-2976
ists	-2977
▁Sch	-2978
▁loan	-2979
▁rapid	-2980
uration	-2981
eff	-2982
dient	-2983
▁heav	-2984
▁your	-2985
effici	-2986
▁Election	-2987
𝑗̂	-2988
ond	-2989
▁nm	-2990
ious	-2991
porary	-2992
▁safety	-2993
▁engines	-2994
▁specific	-2995
(0	-2996
oral	-2997
▁Tem	-2998
atically	-2999
▁principles	-3000
▁Mac	-3001
duced	-3002
▁lime	-3003
▁force	-3004
▁contam	-3005
SP	-3006
ending	-3007
▁undert	-3008
▁Electron	-3009
▁coherent	-3010
▁probability	-3011
nd	-3012
the	-3013
rical	-3014
Broglie	-3015
▁democracy	-3016
tr	-3017
▁…	-3018
𝑐𝑜	-3019
ERN	-3020
▁FW	-3021
𝑐𝑜𝑠	-3022
▁aff	-3023
▁sup	-3024
oline	-3025
▁ident	-3026
▁improve	-3027
Ca	-3028
imin	-3029
▁stop	-3030
▁Bills	-3031
▁final	-3032
▁simpl	-3033
▁houses	-3034
▁larger	-3035
▁remove	-3036
▁bic	-3037
▁now	-3038
▁smaller	-3039
▁society	-3040
▁approval	-3041
▁equality	-3042
▁Generally	-3043
▁calculated	-3044
▁declaration	-3045
oam	-3046
cles	-3047
ipts	-3048
nces	-3049
oses	-3050
▁More	-3051
▁load	-3052
▁comes	-3053
▁features	-3054
▁𝐷	-3055
▁Two	-3056
oring	-3057
▁enter	-3058
▁withd	-3059
▁bright	-3060
▁prepar	-3061
▁review	-3062
▁sitting	-3063
▁benefits	-3064
▁controll	-3065
▁classical	-3066
▁implement	-3067
▁petroleum	-3068
▁resolution	-3069
▁lubricating	-3070
-2	-3071
▁1/	-3072
roph	-3073
▁RIGH	-3074
▁vary	-3075
▁empow	-3076
▁inside	-3077
▁Similar	-3078
▁requires	-3079
▁Institute	-3080
▁wide	-3081
▁salary	-3082
▁private	-3083
▁Increase	-3084
▁separate	-3085
▁consideration	-3086
▁ψ	-3087
UND	-3088
ert	-3089
illed	-3090
▁prev	-3091
▁Control	-3092
▁selling	-3093
▁indirect	-3094
▁spectrum	-3095
▁characteristics	-3096
IL	-3097
sh	-3098
ishes	-3099
▁read	-3100
▁things	-3101
▁boiling	-3102
▁declared	-3103
▁observed	-3104
▁Financial	-3105
▁hazardous	-3106
uf	-3107
▁dam	-3108
▁del	-3109
▁tre	-3110
orage	-3111
ufact	-3112
▁Phys	-3113
▁Gross	-3114
▁cases	-3115
clusive	-3116
▁buyers	-3117
▁highly	-3118
▁needed	-3119
▁element	-3120
▁referred	-3121
▁incidence	-3122
rac	-3123
van	-3124
▁ev	-3125
▁nps	-3126
▁coll	-3127
▁cool	-3128
▁raise	-3129
▁since	-3130
racking	-3131
▁Method	-3132
▁sample	-3133
▁interse	-3134
▁curren	-3135
▁compared	-3136
▁Amendment	-3137
▁disturbance	-3138
%)	-3139
▁os	-3140
▁194	-3141
▁cho	-3142
argin	-3143
▁Scal	-3144
▁drop	-3145
▁steps	-3146
▁integrity	-3147
▁therefore	-3148
▁propagation	-3149
erent	-3150
▁grant	-3151
organic	-3152
▁itself	-3153
▁calcium	-3154
ense	-3155
--------	-3156
▁Finance	-3157
▁concept	-3158
▁spectra	-3159
▁unitary	-3160
▁chemicals	-3161
▁community	-3162
."	-3163
▁80	-3164
▁lose	-3165
▁ways	-3166
▁table	-3167
efficient	-3168
▁industry	-3169
▁original	-3170
▁industries	-3171
▁ir	-3172
face	-3173
inflation	-3174
▁spontaneous	-3175
▁Aut	-3176
▁vii	-3177
tific	-3178
▁conn	-3179
tificial	-3180
▁Develop	-3181
▁conserv	-3182
▁achieved	-3183
▁significant	-3184
▁	-3185
ICI	-3186
way	-3187
▁EX	-3188
like	-3189
▁cop	-3190
▁far	-3191
veral	-3192
▁debt	-3193
▁joint	-3194
▁needs	-3195
ributed	-3196
▁seller	-3197
▁several	-3198
VC	-3199
ask	-3200
cks	-3201
▁Ab	-3202
▁ep	-3203
▁𝑘̂	-3204
▁Reg	-3205
▁Use	-3206
anger	-3207
▁task	-3208
riction	-3209
▁adjust	-3210
▁govern	-3211
▁adverse	-3212
▁Chemical	-3213
▁infinite	-3214
▁Committee	-3215
▁otherwise	-3216
▁additional	-3217
▁NO	-3218
imal	-3219
▁0.5	-3220
▁div	-3221
▁exam	-3222
▁Pollution	-3223
▁producing	-3224
▁democratic	-3225
▁Cy	-3226
ques	-3227
▁decom	-3228
▁radius	-3229
▁charged	-3230
sequently	-3231
anc	-3232
ify	-3233
▁view	-3234
▁⃗⃗⃗⃗⃗	-3235
▁Project	-3236
▁sellers	-3237
▁assembly	-3238
▁categories	-3239
rm	-3240
eal	-3241
▁7.	-3242
▁wants	-3243
itation	-3244
▁advice	-3245
▁plants	-3246
▁finding	-3247
▁perfectly	-3248
UB	-3249
sid	-3250
▁Bi	-3251
aper	-3252
izes	-3253
▁JUD	-3254
▁top	-3255
▁Cour	-3256
▁gain	-3257
▁rays	-3258
▁Inter	-3259
▁Micro	-3260
▁layer	-3261
▁legal	-3262
inition	-3263
▁Factors	-3264
▁Service	-3265
▁defines	-3266
▁meeting	-3267
▁promote	-3268
▁employed	-3269
▁manufact	-3270
▁dissolution	-3271
HI	-3272
▁26	-3273
push	-3274
utri	-3275
▁hol	-3276
atings	-3277
▁importance	-3278
phur	-3279
uary	-3280
▁Dec	-3281
▁ring	-3282
gether	-3283
utants	-3284
▁affects	-3285
▁operate	-3286
▁revenue	-3287
▁together	-3288
▁Similarly	-3289
wor	-3290
▁Mo	-3291
ticip	-3292
▁soda	-3293
▁Carbon	-3294
▁enclosed	-3295
▁expected	-3296
▁receipts	-3297
▁stability	-3298
▁atmosphere	-3299
CIL	-3300
▁aim	-3301
UNCIL	-3302
▁burn	-3303
▁circu	-3304
▁petrol	-3305
▁COUNCIL	-3306
▁undertak	-3307
▁amendment	-3308
▁explained	-3309
▁lubrication	-3310
EP	-3311
mg	-3312
▁ml	-3313
oura	-3314
usion	-3315
▁zeol	-3316
ATIONS	-3317
▁complex	-3318
▁implies	-3319
▁substance	-3320
▁dV	-3321
ient	-3322
uity	-3323
▁beg	-3324
▁bott	-3325
▁until	-3326
▁limited	-3327
▁reserves	-3328
LES	-3329
orts	-3330
▁Est	-3331
▁sem	-3332
▁why	-3333
▁inel	-3334
▁carri	-3335
▁oxidation	-3336
OC	-3337
EMB	-3338
nty	-3339
rif	-3340
cill	-3341
quif	-3342
▁GOV	-3343
▁ple	-3344
ignty	-3345
▁best	-3346
▁said	-3347
▁glass	-3348
▁oscill	-3349
▁involved	-3350
▁reduction	-3351
▁sovereignty	-3352
▁Cap	-3353
▁anod	-3354
▁rain	-3355
▁thus	-3356
▁volt	-3357
▁nucle	-3358
▁30,000	-3359
▁minima	-3360
▁Domestic	-3361
▁exercise	-3362
▁superposition	-3363
irst	-3364
alvan	-3365
etane	-3366
▁heavy	-3367
▁passing	-3368
▁reducing	-3369
▁security	-3370
ifications	-3371
NO	-3372
LEC	-3373
ext	-3374
▁Cr	-3375
ENCY	-3376
▁suspend	-3377
▁gradient	-3378
▁estimated	-3379
▁acceptance	-3380
▁administration	-3381
▁NP	-3382
QUAL	-3383
crib	-3384
▁Main	-3385
▁Prop	-3386
▁Using	-3387
▁boilers	-3388
▁Articles	-3389
▁agricult	-3390
▁gasoline	-3391
".	-3392
xt	-3393
---	-3394
amm	-3395
ffic	-3396
alyst	-3397
▁fail	-3398
inetic	-3399
rative	-3400
▁death	-3401
▁votes	-3402
▁calculation	-3403
AG	-3404
rich	-3405
sive	-3406
▁firms	-3407
▁perman	-3408
▁emulsion	-3409
▁preamble	-3410
▁additives	-3411
▁regarding	-3412
▁trib	-3413
▁third	-3414
osphate	-3415
▁labour	-3416
▁religion	-3417
▁economies	-3418
▁uncertainty	-3419
800	-3420
ropic	-3421
▁earth	-3422
▁rules	-3423
isation	-3424
reciable	-3425
▁classes	-3426
▁discrim	-3427
6.	-3428
EF	-3429
ested	-3430
hesis	-3431
▁Land	-3432
▁half	-3433
▁plate	-3434
▁modern	-3435
ynthesis	-3436
▁percentage	-3437
ued	-3438
▁discussed	-3439
14	-3440
▁6.	-3441
▁8.	-3442
▁𝑗̂	-3443
▁FUND	-3444
▁feed	-3445
MENTAL	-3446
▁Suppl	-3447
▁today	-3448
▁Number	-3449
▁obtain	-3450
9)	-3451
▁	-3452
▁	-3453
▁	-3454
▁𝐽	-3455
pro	-3456
ifies	-3457
▁just	-3458
▁Other	-3459
▁store	-3460
▁Courts	-3461
▁adding	-3462
▁construction	-3463
▁✓	-3464
▁Maj	-3465
▁Ret	-3466
▁MARR	-3467
▁Sales	-3468
▁maintain	-3469
▁Advantages	-3470
▁Technology	-3471
▁opportunity	-3472
▁$	-3473
anes	-3474
▁One	-3475
▁begin	-3476
▁plant	-3477
▁serve	-3478
▁Judges	-3479
▁cathodic	-3480
▁viscosity	-3481
2(	-3482
atics	-3483
▁amended	-3484
▁allowance	-3485
▁Constituent	-3486
▁represented	-3487
anj	-3488
ita	-3489
▁Key	-3490
avings	-3491
▁Keynes	-3492
▁swears	-3493
▁unions	-3494
▁correct	-3495
▁appoints	-3496
▁education	-3497
▁representatives	-3498
94	-3499
co	-3500
CIAL	-3501
rmal	-3502
▁Gas	-3503
▁Oil	-3504
▁Cash	-3505
▁keep	-3506
▁placed	-3507
ME	-3508
▁μ	-3509
▁Cat	-3510
▁pun	-3511
▁rig	-3512
enses	-3513
romatic	-3514
▁GOVERN	-3515
▁Oxygen	-3516
▁Profit	-3517
▁permanent	-3518
▁variation	-3519
▁differential	-3520
▁6)	-3521
ards	-3522
iscal	-3523
▁deal	-3524
▁post	-3525
▁constitu	-3526
88	-3527
over	-3528
▁lev	-3529
▁put	-3530
▁Part	-3531
alvanic	-3532
▁leader	-3533
▁varies	-3534
▁candidate	-3535
▁panchayat	-3536
34	-3537
och	-3538
▁Der	-3539
▁swit	-3540
𝑘𝑥−𝑤𝑡	-3541
▁aspect	-3542
▁Variable	-3543
▁purchase	-3544
ESID	-3545
▁Bas	-3546
▁NPW	-3547
▁tun	-3548
▁abol	-3549
▁iron	-3550
▁magn	-3551
▁Macro	-3552
▁Solid	-3553
▁always	-3554
▁status	-3555
stituted	-3556
▁produces	-3557
▁Principle	-3558
▁situations	-3559
AW	-3560
▁∆	-3561
ets	-3562
MERG	-3563
▁Fed	-3564
▁Sod	-3565
▁5000	-3566
▁true	-3567
▁EMERG	-3568
▁EMERGENCY	-3569
▁application	-3570
▁AC	-3571
▁Au	-3572
▁APP	-3573
aking	-3574
onomy	-3575
▁date	-3576
▁want	-3577
LATIVE	-3578
▁fuels	-3579
▁sells	-3580
▁saving	-3581
▁towards	-3582
▁LEGISLATIVE	-3583
▁disqualified	-3584
hest	-3585
iven	-3586
▁Pop	-3587
▁flux	-3588
▁𝐸⃗⃗)	-3589
roding	-3590
angible	-3591
sequent	-3592
▁Indust	-3593
▁underg	-3594
▁forming	-3595
▁highest	-3596
▁catalyst	-3597
▁friction	-3598
▁moisture	-3599
▁Schroding	-3600
▁exclusive	-3601
(1	-3602
ower	-3603
▁DIS	-3604
▁enum	-3605
ferred	-3606
▁model	-3607
▁actual	-3608
▁enjoys	-3609
▁entire	-3610
▁program	-3611
▁component	-3612
▁influence	-3613
▁ful	-3614
arant	-3615
▁poor	-3616
cience	-3617
rosion	-3618
rought	-3619
▁fulfill	-3620
▁guarant	-3621
▁remains	-3622
▁Production	-3623
amber	-3624
▁care	-3625
▁holds	-3626
▁Economic	-3627
▁competition	-3628
be	-3629
ira	-3630
sel	-3631
▁Mar	-3632
▁near	-3633
▁FUNDA	-3634
▁problems	-3635
▁Condition	-3636
▁described	-3637
▁FUNDAMENTAL	-3638
ET	-3639
END	-3640
▁od	-3641
vert	-3642
▁fra	-3643
▁say	-3644
icies	-3645
▁Another	-3646
▁consult	-3647
▁theorem	-3648
economics	-3649
▁domestic	-3650
▁landfill	-3651
▁policies	-3652
▁Corrosion	-3653
▁experiment	-3654
ouch	-3655
▁Val	-3656
▁rele	-3657
▁behav	-3658
▁optic	-3659
soluble	-3660
▁around	-3661
▁address	-3662
▁mention	-3663
▁workers	-3664
▁Properties	-3665
▁management	-3666
▁functioning	-3667
DP	-3668
ks	-3669
▁µ	-3670
▁Both	-3671
esides	-3672
▁First	-3673
▁amend	-3674
▁party	-3675
▁Obtain	-3676
▁beings	-3677
▁Freedom	-3678
▁individuals	-3679
,15	-3680
lel	-3681
▁enc	-3682
allel	-3683
ittle	-3684
olume	-3685
▁summ	-3686
▁little	-3687
fficient	-3688
▁parallel	-3689
▁producer	-3690
▁composition	-3691
▁SU	-3692
heric	-3693
quifer	-3694
▁oxide	-3695
▁Return	-3696
▁plates	-3697
▁developed	-3698
▁inelastic	-3699
▁1.5	-3700
ached	-3701
▁Unit	-3702
▁Normal	-3703
▁Theory	-3704
▁rapidly	-3705
▁whether	-3706
▁Monetary	-3707
URT	-3708
net	-3709
cell	-3710
▁util	-3711
ication	-3712
▁Initial	-3713
▁inhibit	-3714
▁governor	-3715
▁magnitude	-3716
▁appointment	-3717
64	-3718
▁∇	-3719
▁AB	-3720
▁(0.	-3721
▁bel	-3722
▁word	-3723
▁Value	-3724
ordinate	-3725
▁kinetic	-3726
▁salvage	-3727
▁territories	-3728
year	-3729
ledge	-3730
▁buil	-3731
▁machine	-3732
▁MINISTER	-3733
▁numerical	-3734
▁enumerated	-3735
▁	-3736
pped	-3737
▁ant	-3738
rated	-3739
▁coal	-3740
▁ruby	-3741
▁cycle	-3742
▁appeal	-3743
▁techni	-3744
NG	-3745
▁tit	-3746
5,000	-3747
▁audit	-3748
▁switch	-3749
▁elements	-3750
▁declining	-3751
▁DO	-3752
▁FIN	-3753
ected	-3754
ulsif	-3755
▁least	-3756
▁Single	-3757
INT	-3758
uum	-3759
▁Sul	-3760
ators	-3761
atory	-3762
ustic	-3763
▁wage	-3764
pective	-3765
▁faster	-3766
▁spread	-3767
▁pension	-3768
▁criteria	-3769
▁relating	-3770
▁federation	-3771
▁reasonable	-3772
𝜙1	-3773
ritt	-3774
▁Engl	-3775
▁MgCl	-3776
▁semi	-3777
▁vill	-3778
▁mixed	-3779
▁10,000	-3780
ometimes	-3781
▁amounts	-3782
▁directions	-3783
▁preference	-3784
▁corresponding	-3785
▁Le	-3786
▁hyd	-3787
ector	-3788
▁labor	-3789
▁resid	-3790
▁impose	-3791
▁mainly	-3792
▁supreme	-3793
▁pleasure	-3794
▁legislation	-3795
▁municipality	-3796
ream	-3797
▁she	-3798
▁fact	-3799
▁Noise	-3800
▁disput	-3801
▁brought	-3802
▁ignition	-3803
▁subsequent	-3804
.)	-3805
ne	-3806
▁𝑎	-3807
ather	-3808
mentation	-3809
▁supplies	-3810
▁calorific	-3811
10)	-3812
fur	-3813
ols	-3814
▁23	-3815
▁Rep	-3816
▁Eval	-3817
▁Inst	-3818
▁Cycle	-3819
▁electroly	-3820
▁coefficient	-3821
▁	-3822
▁𝟐	-3823
ircu	-3824
▁EIS	-3825
▁Circu	-3826
𝐸⃗	-3827
ables	-3828
hetic	-3829
▁dism	-3830
▁Supply	-3831
▁discre	-3832
▁punish	-3833
▁controls	-3834
▁mentioned	-3835
▁0,	-3836
IFIC	-3837
▁str	-3838
icular	-3839
nesium	-3840
▁tends	-3841
▁0.003(	-3842
▁probab	-3843
▁scalar	-3844
stitutes	-3845
pendicular	-3846
▁scheduled	-3847
▁parliamentary	-3848
US	-3849
The	-3850
fun	-3851
rest	-3852
sures	-3853
▁nutri	-3854
▁longer	-3855
▁softening	-3856
▁Development	-3857
▁𝐼	-3858
ana	-3859
▁impe	-3860
arbons	-3861
▁Second	-3862
▁fields	-3863
▁savings	-3864
▁generated	-3865
▁reflected	-3866
▁electronic	-3867
93	-3868
angu	-3869
▁langu	-3870
▁support	-3871
▁Exchange	-3872
geochemical	-3873
▁decreasing	-3874
▁determining	-3875
▁productivity	-3876
▁administrative	-3877
poses	-3878
▁Appl	-3879
▁mode	-3880
▁turb	-3881
▁COURT	-3882
▁Offic	-3883
▁fibre	-3884
▁Presiding	-3885
▁understand	-3886
700	-3887
adm	-3888
ingu	-3889
rate	-3890
▁(4)	-3891
▁ult	-3892
overy	-3893
▁enjoy	-3894
▁agents	-3895
▁anticip	-3896
▁applicable	-3897
)/	-3898
to	-3899
▁Dr	-3900
▁EIA	-3901
state	-3902
ulate	-3903
▁Average	-3904
▁Besides	-3905
▁meaning	-3906
▁bicarbon	-3907
iminishing	-3908
LIC	-3909
ole	-3910
▁90	-3911
▁Li	-3912
▁SC	-3913
resh	-3914
▁mic	-3915
ylene	-3916
▁1200	-3917
▁Fund	-3918
▁qual	-3919
▁monoch	-3920
▁official	-3921
▁operator	-3922
▁ecological	-3923
▁resistance	-3924
▁proportional	-3925
▁monochromatic	-3926
lig	-3927
ppm	-3928
▁5.1	-3929
▁acqu	-3930
▁colour	-3931
rimarily	-3932
▁neither	-3933
▁prescrib	-3934
▁photoelectrons	-3935
FF	-3936
rd	-3937
▁0.0	-3938
▁den	-3939
▁emb	-3940
haust	-3941
lling	-3942
▁Time	-3943
arging	-3944
aerobic	-3945
▁allowed	-3946
▁thickness	-3947
▁absorption	-3948
𝑦+	-3949
met	-3950
cule	-3951
▁Mod	-3952
▁voting	-3953
▁Perfect	-3954
▁corrosive	-3955
▁positions	-3956
▁transport	-3957
▁determines	-3958
▁introduced	-3959
▁pollutants	-3960
dle	-3961
off	-3962
▁ELEC	-3963
▁kind	-3964
▁next	-3965
solute	-3966
▁cycles	-3967
▁signal	-3968
▁absolute	-3969
▁changing	-3970
▁definition	-3971
ler	-3972
▁𝜕𝑥	-3973
▁rad	-3974
aches	-3975
▁exch	-3976
▁sold	-3977
inates	-3978
▁Derive	-3979
▁expand	-3980
ditional	-3981
▁ability	-3982
▁borrowed	-3983
▁withdraw	-3984
▁intersect	-3985
▁presented	-3986
2.3	-3987
▁Mat	-3988
▁REL	-3989
▁Wor	-3990
▁sug	-3991
▁Disc	-3992
oaming	-3993
posable	-3994
tration	-3995
▁Compar	-3996
▁Consid	-3997
▁closed	-3998
▁propos	-3999
ynthetic	-4000
▁creates	-4001
▁outside	-4002
▁undergo	-4003
▁compression	-4004
▁𝜇	-4005
(0.	-4006
▁Bh	-4007
mber	-4008
▁Perm	-4009
▁cult	-4010
reement	-4011
▁passes	-4012
▁raises	-4013
▁wastes	-4014
▁reasons	-4015
▁Equation	-4016
▁continues	-4017
▁dispersed	-4018
▁municipalities	-4019
18	-4020
▁Food	-4021
▁book	-4022
ileges	-4023
▁namely	-4024
96	-4025
ares	-4026
▁incl	-4027
▁recy	-4028
enefit	-4029
▁adequ	-4030
▁beams	-4031
▁vacuum	-4032
FC	-4033
lex	-4034
▁Bl	-4035
onic	-4036
rors	-4037
stain	-4038
▁loop	-4039
▁scar	-4040
▁viii	-4041
ressure	-4042
▁circuit	-4043
▁derived	-4044
▁sustain	-4045
▁meetings	-4046
▁students	-4047
▁Management	-4048
▁perpendicular	-4049
CV	-4050
EDOM	-4051
▁FRE	-4052
▁nar	-4053
ribut	-4054
▁Only	-4055
▁text	-4056
50,000	-4057
osphere	-4058
reshold	-4059
▁Charge	-4060
▁Though	-4061
▁narrow	-4062
▁FREEDOM	-4063
▁voltage	-4064
▁molecular	-4065
▁rup	-4066
inder	-4067
▁Also	-4068
▁happ	-4069
▁puls	-4070
▁fibers	-4071
▁taking	-4072
▁dismiss	-4073
▁entering	-4074
▁surround	-4075
▁relatively	-4076
▁securities	-4077
iogeochemical	-4078
2:	-4079
HA	-4080
▁(5)	-4081
▁nor	-4082
irable	-4083
▁rigid	-4084
▁Ground	-4085
▁PRESID	-4086
▁grants	-4087
▁issues	-4088
▁returns	-4089
▁approved	-4090
▁rational	-4091
▁utilized	-4092
▁evaluation	-4093
▁citizenship	-4094
Ne	-4095
omb	-4096
icit	-4097
▁Due	-4098
quare	-4099
▁CaCl	-4100
▁Remo	-4101
▁rich	-4102
▁appear	-4103
▁interm	-4104
▁medical	-4105
▁trapped	-4106
▁currency	-4107
ouchability	-4108
▁international	-4109
𝑖̂	-4110
ING	-4111
yond	-4112
▁With	-4113
▁curl	-4114
▁fine	-4115
▁beyond	-4116
▁tropic	-4117
▁alkaline	-4118
▁molecule	-4119
▁personal	-4120
▁dispersion	-4121
▁throughout	-4122
ah	-4123
▁steel	-4124
rinking	-4125
▁sulfur	-4126
▁Officer	-4127
▁Primary	-4128
▁aspects	-4129
▁devices	-4130
▁beginning	-4131
bur	-4132
▁55	-4133
▁IT	-4134
imum	-4135
▁Alk	-4136
▁DUR	-4137
▁Fil	-4138
Waste	-4139
osing	-4140
▁Lead	-4141
▁come	-4142
▁Three	-4143
▁cryst	-4144
▁monit	-4145
▁degree	-4146
▁enters	-4147
ST	-4148
yn	-4149
▁DI	-4150
cules	-4151
point	-4152
▁NaOH	-4153
▁live	-4154
▁instru	-4155
▁readily	-4156
▁depending	-4157
▁molecules	-4158
▁Proportion	-4159
)?	-4160
LO	-4161
RI	-4162
▁∮	-4163
EAT	-4164
ION	-4165
▁old	-4166
ATURE	-4167
▁MgSO	-4168
▁alum	-4169
▁miss	-4170
ansion	-4171
ediate	-4172
▁EQUAL	-4173
▁branc	-4174
▁decay	-4175
▁anodic	-4176
▁absence	-4177
▁adopted	-4178
▁incomes	-4179
▁leading	-4180
▁Hazardous	-4181
SS	-4182
▁DD	-4183
ails	-4184
avity	-4185
ograph	-4186
▁imposed	-4187
▁numbers	-4188
▁version	-4189
▁requirements	-4190
LY	-4191
▁kg	-4192
OINT	-4193
lies	-4194
▁TER	-4195
▁test	-4196
▁uses	-4197
▁bacter	-4198
▁mostly	-4199
▁changed	-4200
▁Majority	-4201
▁efficient	-4202
▁institutions	-4203
▁Constitutional	-4204
▁responsibility	-4205
oly	-4206
war	-4207
▁2,	-4208
▁Bec	-4209
▁GDP	-4210
▁hot	-4211
▁mis	-4212
iddle	-4213
▁Redu	-4214
▁grease	-4215
▁rating	-4216
▁Because	-4217
▁convert	-4218
▁village	-4219
treatment	-4220
▁Solution	-4221
▁coatings	-4222
▁mechanical	-4223
▁combination	-4224
23	-4225
oxy	-4226
▁App	-4227
▁RES	-4228
▁advan	-4229
▁autom	-4230
▁gross	-4231
▁trave	-4232
achment	-4233
▁redist	-4234
▁Ecology	-4235
▁critics	-4236
▁treated	-4237
▁batteries	-4238
▁inhibitors	-4239
▁travelling	-4240
63	-4241
erate	-4242
▁easy	-4243
iciary	-4244
▁avoid	-4245
▁child	-4246
▁liter	-4247
▁Liquid	-4248
▁States	-4249
▁secure	-4250
▁tunnel	-4251
iversity	-4252
▁applied	-4253
▁territory	-4254
▁Population	-4255
▁maintained	-4256
▁normalized	-4257
▁sufficient	-4258
.5	-4259
26	-4260
RO	-4261
400	-4262
(0.1	-4263
▁dry	-4264
anjan	-4265
urban	-4266
▁opin	-4267
▁Their	-4268
▁sides	-4269
oherent	-4270
▁Atmosp	-4271
▁Budget	-4272
▁Cracking	-4273
▁particip	-4274
▁preferred	-4275
▁generation	-4276
▁hydrocarbons	-4277
no	-4278
,7,	-4279
emic	-4280
▁Col	-4281
▁Biod	-4282
▁Sound	-4283
▁plays	-4284
▁vapor	-4285
unities	-4286
▁Margin	-4287
▁Resins	-4288
▁assumed	-4289
▁privileges	-4290
',	-4291
ATH	-4292
▁civ	-4293
ILITY	-4294
etime	-4295
▁OATH	-4296
▁clean	-4297
▁undes	-4298
actions	-4299
▁center	-4300
▁linear	-4301
▁desired	-4302
▁stopping	-4303
▁exercises	-4304
▁developing	-4305
▁subordinate	-4306
3-	-4307
▁~	-4308
▁	-4309
ogn	-4310
uly	-4311
TIES	-4312
▁Any	-4313
▁100/	-4314
▁watt	-4315
▁40,000	-4316
▁depart	-4317
▁fiscal	-4318
▁places	-4319
▁settle	-4320
▁upward	-4321
▁English	-4322
▁Federal	-4323
▁decided	-4324
▁affected	-4325
▁suspended	-4326
(4	-4327
uk	-4328
ORE	-4329
▁𝜕𝑧	-4330
otes	-4331
▁Air	-4332
▁PAN	-4333
▁PbO	-4334
▁band	-4335
alytic	-4336
elling	-4337
erences	-4338
▁aquifer	-4339
▁session	-4340
▁articles	-4341
▁followed	-4342
▁knowledge	-4343
▁mechanics	-4344
𝐴1	-4345
ancy	-4346
atio	-4347
just	-4348
▁job	-4349
▁seek	-4350
▁thin	-4351
▁damage	-4352
▁1,00,000	-4353
▁ultimate	-4354
▁existence	-4355
▁precipitate	-4356
-1	-4357
𝐸0	-4358
▁0.2	-4359
selves	-4360
▁drawn	-4361
▁manag	-4362
urities	-4363
▁Consum	-4364
▁assess	-4365
▁aerobic	-4366
▁chamber	-4367
▁Equality	-4368
▁purposes	-4369
▁primarily	-4370
▁completion	-4371
▁conservation	-4372
▁contribution	-4373
48	-4374
dB	-4375
.15	-4376
▁mut	-4377
▁Conc	-4378
▁cast	-4379
▁site	-4380
▁Simple	-4381
▁square	-4382
▁Removal	-4383
▁actions	-4384
▁emulsif	-4385
77	-4386
▁5%	-4387
▁SS	-4388
▁TE	-4389
iple	-4390
▁Ref	-4391
▁bon	-4392
▁Fore	-4393
▁notes	-4394
▁Proble	-4395
▁freely	-4396
▁solids	-4397
▁carried	-4398
▁inverse	-4399
▁mineral	-4400
dimension	-4401
oelectric	-4402
▁continue	-4403
▁movement	-4404
▁controlling	-4405
▁proceedings	-4406
▁	-4407
han	-4408
▁Fr	-4409
,15,	-4410
lets	-4411
▁Out	-4412
▁Sec	-4413
▁foc	-4414
▁Orig	-4415
▁Given	-4416
develop	-4417
▁20,000	-4418
▁comput	-4419
▁interp	-4420
▁significance	-4421
TH	-4422
pm	-4423
RIC	-4424
mtr	-4425
▁13	-4426
agul	-4427
arch	-4428
inst	-4429
ners	-4430
▁LUB	-4431
▁ppm	-4432
▁dual	-4433
▁valu	-4434
▁Assum	-4435
▁LUBRIC	-4436
▁Scales	-4437
▁tenure	-4438
▁Organic	-4439
▁DURATION	-4440
▁Sometimes	-4441
▁schedules	-4442
▁probabilit	-4443
▁implementation	-4444
72	-4445
kg	-4446
col	-4447
▁er	-4448
uate	-4449
▁ren	-4450
orial	-4451
▁chains	-4452
▁stored	-4453
▁annuity	-4454
▁embritt	-4455
▁sliding	-4456
▁studies	-4457
▁building	-4458
▁drinking	-4459
▁compounded	-4460
▁respective	-4461
▁embrittlement	-4462
,8	-4463
UL	-4464
ik	-4465
let	-4466
▁35	-4467
▁oq	-4468
POSI	-4469
▁Dry	-4470
▁bul	-4471
anent	-4472
igned	-4473
organ	-4474
▁Dash	-4475
▁chair	-4476
▁stick	-4477
▁exceed	-4478
POSITION	-4479
▁ecology	-4480
▁assigned	-4481
▁concepts	-4482
▁practice	-4483
▁Permanent	-4484
▁inorganic	-4485
▁transferred	-4486
pere	-4487
rade	-4488
yper	-4489
▁Min	-4490
▁cut	-4491
▁Pers	-4492
▁close	-4493
▁eigenval	-4494
▁extended	-4495
▁language	-4496
yperinflation	-4497
▁conductivity	-4498
▁Macroeconomics	-4499
.3	-4500
olid	-4501
▁800	-4502
▁𝐷⃗⃗	-4503
▁gold	-4504
▁wind	-4505
▁𝐵⃗⃗.	-4506
▁Basic	-4507
▁funds	-4508
▁answer	-4509
▁assemb	-4510
▁others	-4511
▁Calcium	-4512
▁declare	-4513
▁opinion	-4514
▁payback	-4515
▁receive	-4516
▁bacteria	-4517
▁discount	-4518
▁division	-4519
▁empowered	-4520
▁expansion	-4521
▁competitive	-4522
▁inflationary	-4523
▁	-4524
▁gm	-4525
▁don	-4526
▁had	-4527
▁pip	-4528
acrif	-4529
ences	-4530
rolog	-4531
▁shap	-4532
▁∇⃗⃗.	-4533
▁chrom	-4534
▁exhaust	-4535
▁connected	-4536
▁ecosystems	-4537
CIP	-4538
,10)	-4539
itud	-4540
radi	-4541
▁INT	-4542
INCIP	-4543
erior	-4544
imode	-4545
▁Stand	-4546
▁gradu	-4547
▁uncon	-4548
ifetime	-4549
▁Mathem	-4550
INCIPLES	-4551
▁APPOINT	-4552
▁Capital	-4553
▁confined	-4554
▁expenses	-4555
▁PRINCIPLES	-4556
▁particularly	-4557
kT	-4558
pr	-4559
int	-4560
men	-4561
▁Sur	-4562
▁cyl	-4563
▁3000	-4564
▁arrow	-4565
▁distin	-4566
▁impact	-4567
▁recogn	-4568
▁approxim	-4569
▁downward	-4570
▁Electrical	-4571
▁departments	-4572
St	-4573
▁𝜙	-4574
AGA	-4575
max	-4576
uge	-4577
▁28	-4578
▁42	-4579
▁dx	-4580
▁𝜕2	-4581
yram	-4582
comes	-4583
▁rank	-4584
▁seen	-4585
yramid	-4586
▁schem	-4587
▁affair	-4588
ructures	-4589
▁Content	-4590
▁diluted	-4591
▁terminal	-4592
▁accounting	-4593
▁Schrodinger	-4594
▁transmitted	-4595
ury	-4596
enced	-4597
escri	-4598
▁fill	-4599
▁soft	-4600
ensive	-4601
▁uphold	-4602
▁converts	-4603
▁revenues	-4604
▁violation	-4605
▁Distribution	-4606
%.	-4607
2.4	-4608
ube	-4609
dden	-4610
empt	-4611
▁Che	-4612
▁Mem	-4613
gress	-4614
▁1500	-4615
▁here	-4616
▁tube	-4617
▁Audit	-4618
▁moves	-4619
▁Sodium	-4620
▁active	-4621
▁danger	-4622
▁sudden	-4623
▁Usually	-4624
▁retired	-4625
▁satisfy	-4626
▁whereas	-4627
▁advances	-4628
▁progress	-4629
▁dependent	-4630
▁resignation	-4631
▁±	-4632
▁	-4633
▁	-4634
len	-4635
▁AM	-4636
▁El	-4637
▁∇2	-4638
▁300	-4639
▁big	-4640
odies	-4641
▁past	-4642
▁alone	-4643
▁exists	-4644
▁fringe	-4645
▁layers	-4646
inerator	-4647
pressure	-4648
▁Elastic	-4649
▁Electro	-4650
▁Quantity	-4651
▁wavelets	-4652
▁……………………	-4653
▁Character	-4654
▁nutrients	-4655
▁temporary	-4656
▁fr	-4657
▁mir	-4658
▁Even	-4659
▁Flow	-4660
▁MEMB	-4661
▁Most	-4662
▁Rule	-4663
▁furn	-4664
ectors	-4665
otroph	-4666
quatic	-4667
▁Green	-4668
▁acids	-4669
▁exact	-4670
▁Temper	-4671
▁phases	-4672
▁Present	-4673
▁Hydrogen	-4674
▁Physical	-4675
▁operates	-4676
IFICATIONS	-4677
▁Electronic	-4678
▁criticised	-4679
▁Temperature	-4680
▁Consequently	-4681
▁discrimination	-4682
-3	-4683
iour	-4684
▁Cur	-4685
anges	-4686
▁paid	-4687
▁RIGHT	-4688
▁noise	-4689
▁occup	-4690
▁rupee	-4691
▁thing	-4692
itizens	-4693
▁origin	-4694
▁vested	-4695
▁instance	-4696
4-	-4697
87	-4698
oC	-4699
DIC	-4700
ery	-4701
pri	-4702
ATED	-4703
URIS	-4704
anel	-4705
orous	-4706
▁6000	-4707
▁Draw	-4708
▁sedi	-4709
▁self	-4710
▁wall	-4711
▁JURIS	-4712
▁While	-4713
▁broad	-4714
▁panel	-4715
DICTION	-4716
atively	-4717
▁simult	-4718
▁Current	-4719
▁council	-4720
▁liberty	-4721
▁Assuming	-4722
▁normally	-4723
▁functional	-4724
▁themselves	-4725
▁constituted	-4726
▁dimensional	-4727
▁JURISDICTION	-4728
▁simultaneous	-4729
=1	-4730
Fe	-4731
▁*	-4732
=10	-4733
ders	-4734
▁dou	-4735
quency	-4736
▁Lapse	-4737
▁Effects	-4738
▁mutually	-4739
▁indirectly	-4740
▁intermediate	-4741
▁determination	-4742
17	-4743
▁70	-4744
▁OY	-4745
oper	-4746
plus	-4747
▁Des	-4748
burse	-4749
▁weak	-4750
igible	-4751
inally	-4752
▁Which	-4753
▁chief	-4754
▁stock	-4755
▁budget	-4756
▁ELECTION	-4757
▁GOVERNOR	-4758
▁PRESIDENT	-4759
▁adversely	-4760
▁affecting	-4761
▁establish	-4762
▁preparing	-4763
HS	-4764
ICE	-4765
iti	-4766
vex	-4767
body	-4768
▁rot	-4769
▁mill	-4770
▁𝜕𝐵⃗⃗	-4771
inding	-4772
▁Quest	-4773
▁analy	-4774
▁Screen	-4775
▁assent	-4776
▁rather	-4777
▁restric	-4778
▁disputes	-4779
▁ordinary	-4780
▁sulfuric	-4781
▁collected	-4782
▁uncertaint	-4783
▁Diffraction	-4784
ux	-4785
ein	-4786
(100	-4787
▁You	-4788
▁mob	-4789
itled	-4790
lfare	-4791
▁Case	-4792
▁idea	-4793
▁port	-4794
▁rent	-4795
▁tank	-4796
aining	-4797
anging	-4798
▁Group	-4799
▁Marsh	-4800
▁Spect	-4801
▁scatt	-4802
instein	-4803
jection	-4804
▁interf	-4805
▁screen	-4806
▁strong	-4807
▁0.003($	-4808
▁offices	-4809
▁welfare	-4810
developed	-4811
▁entitled	-4812
▁machines	-4813
▁scattered	-4814
dimensional	-4815
▁territorial	-4816
▁availability	-4817
▁automatically	-4818
xic	-4819
wage	-4820
▁Inf	-4821
▁Jan	-4822
▁last	-4823
inguish	-4824
▁prohib	-4825
radation	-4826
▁reference	-4827
▁enforceable	-4828
ror	-4829
▁	-4830
▁𝑑𝑠	-4831
▁FOR	-4832
▁Mag	-4833
▁hor	-4834
anies	-4835
hates	-4836
▁1950	-4837
▁Once	-4838
LATURE	-4839
▁Alkal	-4840
▁Produ	-4841
▁cross	-4842
▁Ampere	-4843
▁Sludge	-4844
▁absent	-4845
▁ceases	-4846
▁created	-4847
▁nominal	-4848
▁Gaussian	-4849
▁disposal	-4850
▁galvanic	-4851
▁objectives	-4852
▁prevention	-4853
▁COMPOSITION	-4854
▁LEGISLATURE	-4855
▁organization	-4856
▁representation	-4857
ipl	-4858
pir	-4859
rene	-4860
▁pen	-4861
▁war	-4862
▁link	-4863
,10,5)	-4864
ANCIAL	-4865
▁bottom	-4866
▁Storage	-4867
▁FINANCIAL	-4868
▁alternate	-4869
▁completed	-4870
▁switching	-4871
▁eigenvalue	-4872
▁oscillator	-4873
▁diminishing	-4874
▁undesirable	-4875
▁hyperinflation	-4876
Mg	-4877
ORD	-4878
acy	-4879
iox	-4880
▁=?	-4881
▁TC	-4882
▁tw	-4883
URES	-4884
rosc	-4885
▁III	-4886
▁flex	-4887
▁huge	-4888
▁UNION	-4889
▁ordin	-4890
ameters	-4891
▁alloys	-4892
▁assume	-4893
▁limits	-4894
▁Salvage	-4895
▁extreme	-4896
▁finance	-4897
▁Consolid	-4898
▁EQUALITY	-4899
▁boundary	-4900
▁powerful	-4901
▁carefully	-4902
▁indicates	-4903
▁selection	-4904
▁specifies	-4905
▁authorities	-4906
▁agricultural	-4907
UC	-4908
▁𝜀	-4909
unt	-4910
▁3,	-4911
▁Zn	-4912
000(	-4913
bitr	-4914
isen	-4915
▁amb	-4916
▁arr	-4917
▁𝜕𝑡2	-4918
▁pack	-4919
▁spir	-4920
▁Cathod	-4921
▁scarce	-4922
▁phosphate	-4923
▁interaction	-4924
55	-4925
NH	-4926
flow	-4927
omin	-4928
▁flo	-4929
▁lies	-4930
ourage	-4931
solved	-4932
▁Human	-4933
▁Integ	-4934
▁JUDICI	-4935
▁across	-4936
▁forces	-4937
▁widely	-4938
▁Quantum	-4939
▁figures	-4940
▁Industry	-4941
▁annually	-4942
▁creation	-4943
▁critical	-4944
▁Temporary	-4945
▁regulates	-4946
▁typically	-4947
▁electricity	-4948
▁redistribution	-4949
▁𝐸	-4950
▁.0	-4951
bing	-4952
▁Ant	-4953
▁Rel	-4954
▁key	-4955
ening	-4956
uated	-4957
▁Exam	-4958
▁Light	-4959
▁early	-4960
▁middle	-4961
▁sacrif	-4962
▁affairs	-4963
▁showing	-4964
▁zeolite	-4965
organisms	-4966
▁Examples	-4967
▁existing	-4968
▁wavelengths	-4969
▁decomposition	-4970
▁precipitation	-4971
4+	-4972
IR	-4973
iO	-4974
RES	-4975
oud	-4976
▁1?	-4977
▁OQ	-4978
▁ix	-4979
▁	-4980
▁	-4981
cale	-4982
oard	-4983
▁ESP	-4984
▁MAC	-4985
▁Hard	-4986
▁That	-4987
▁seal	-4988
▁Chlor	-4989
▁sulph	-4990
▁walls	-4991
▁attend	-4992
▁notice	-4993
▁overall	-4994
▁thermal	-4995
▁Moreover	-4996
▁activity	-4997
▁autonomy	-4998
▁planning	-4999
▁refining	-5000
▁residual	-5001
▁judgement	-5002
▁providing	-5003
▁purchased	-5004
▁Wavelength	-5005
▁collection	-5006
▁APPOINTMENT	-5007
mm	-5008
lls	-5009
mon	-5010
▁AD	-5011
▁Of	-5012
iver	-5013
▁Hyd	-5014
▁dig	-5015
reens	-5016
▁1935	-5017
▁Heat	-5018
▁sole	-5019
▁stag	-5020
ademic	-5021
▁coord	-5022
▁writs	-5023
▁lasing	-5024
▁running	-5025
▁screens	-5026
▁lifetime	-5027
▁regional	-5028
▁threshold	-5029
vi	-5030
ourn	-5031
▁Del	-5032
▁PRI	-5033
▁hab	-5034
▁reve	-5035
▁slop	-5036
active	-5037
▁2,000	-5038
▁Graph	-5039
▁bonds	-5040
▁focus	-5041
▁hazard	-5042
▁orders	-5043
▁stands	-5044
▁transf	-5045
▁holding	-5046
▁storage	-5047
▁Indirect	-5048
▁harmonic	-5049
▁Principal	-5050
▁allocation	-5051
▁improvement	-5052
▁preparation	-5053
33	-5054
………	-5055
▁2𝑡	-5056
TING	-5057
irth	-5058
▁Low	-5059
▁Tri	-5060
▁bro	-5061
𝑠𝑖𝑛𝜙	-5062
isory	-5063
▁Acid	-5064
▁Lime	-5065
▁entr	-5066
▁quot	-5067
▁deriv	-5068
▁urban	-5069
iciable	-5070
▁Instru	-5071
▁Region	-5072
▁radical	-5073
▁Property	-5074
▁cylinder	-5075
▁nominated	-5076
▁Elasticity	-5077
▁incinerator	-5078
▁manufacturing	-5079
Al	-5080
GES	-5081
RIT	-5082
wal	-5083
▁BY	-5084
onal	-5085
▁dri	-5086
iance	-5087
▁came	-5088
▁mere	-5089
ptions	-5090
▁OFFIC	-5091
▁Stage	-5092
▁emerg	-5093
▁leave	-5094
IBILITY	-5095
▁advise	-5096
▁MEMBERS	-5097
▁sectors	-5098
▁Citizens	-5099
▁adequate	-5100
▁complement	-5101
▁faithfully	-5102
▁Atmospheric	-5103
▁hydrocarbon	-5104
▁impeachment	-5105
▁qualifications	-5106
▁ε	-5107
EEE	-5108
cel	-5109
inc	-5110
iry	-5111
▁OH	-5112
urch	-5113
racted	-5114
ructive	-5115
▁15,000	-5116
▁markets	-5117
▁vacancy	-5118
▁Communic	-5119
▁Consider	-5120
▁discrete	-5121
02	-5122
RRO	-5123
▁es	-5124
0001	-5125
itro	-5126
▁196	-5127
▁Das	-5128
▁Gen	-5129
urity	-5130
▁Turb	-5131
▁AMEND	-5132
▁CORRO	-5133
▁going	-5134
▁meant	-5135
itrogen	-5136
▁Period	-5137
▁RIGHTS	-5138
▁Volume	-5139
▁alkane	-5140
▁coming	-5141
agulants	-5142
illation	-5143
▁carrying	-5144
▁graphite	-5145
▁outcomes	-5146
▁AMENDMENT	-5147
▁CORROSION	-5148
▁distilled	-5149
▁Artificial	-5150
▁impurities	-5151
▁distillation	-5152
1.5	-5153
▁∆=	-5154
ASER	-5155
ITION	-5156
inery	-5157
▁Dece	-5158
▁stri	-5159
resent	-5160
sidies	-5161
▁peace	-5162
▁spend	-5163
▁treat	-5164
𝑘𝑥−𝑤𝑡+	-5165
iversal	-5166
▁cetane	-5167
▁illust	-5168
▁losses	-5169
chemical	-5170
vironment	-5171
▁December	-5172
▁Landfill	-5173
▁Transfer	-5174
▁properly	-5175
▁judiciary	-5176
▁recycling	-5177
▁Comparison	-5178
▁enforcement	-5179
▁𝑣	-5180
PAL	-5181
sor	-5182
und	-5183
▁21	-5184
▁SY	-5185
most	-5186
raft	-5187
▁CRI	-5188
▁MUN	-5189
▁NPP	-5190
𝐸⃗⃗.	-5191
20,000	-5192
ICIPAL	-5193
▁rocks	-5194
amation	-5195
▁Forest	-5196
▁acting	-5197
▁enable	-5198
▁Unitary	-5199
▁achieve	-5200
▁cycling	-5201
▁Evaluate	-5202
▁oiliness	-5203
▁---------	-5204
▁MUNICIPAL	-5205
▁electoral	-5206
▁Protection	-5207
▁frequently	-5208
▁contributed	-5209
▁constitutions	-5210
▁constituencies	-5211
2/	-5212
2=	-5213
uri	-5214
▁1(	-5215
▁=>	-5216
▁𝐴1	-5217
ones	-5218
▁san	-5219
dense	-5220
▁draw	-5221
▁root	-5222
▁𝐸⃗⃗.	-5223
ifying	-5224
ivated	-5225
riteria	-5226
▁0.0001	-5227
▁cavity	-5228
▁heated	-5229
▁liquids	-5230
▁attached	-5231
▁behavior	-5232
▁condense	-5233
▁received	-5234
▁recovery	-5235
▁integrated	-5236
.8	-5237
ISI	-5238
PRE	-5239
ili	-5240
▁(19	-5241
▁His	-5242
OVISI	-5243
▁PbSO	-5244
▁curv	-5245
▁Depos	-5246
▁SUPRE	-5247
▁fully	-5248
▁initi	-5249
▁odour	-5250
issible	-5251
▁abroad	-5252
▁behalf	-5253
▁biotic	-5254
▁descri	-5255
▁latter	-5256
▁reacts	-5257
OVISIONS	-5258
▁Dispers	-5259
▁equally	-5260
▁multipl	-5261
▁Marshall	-5262
▁regulate	-5263
▁selected	-5264
▁Electrons	-5265
▁Numerical	-5266
▁curvature	-5267
▁Concurrent	-5268
▁PROVISIONS	-5269
▁Photoelectric	-5270
▁CONSTITUTIONAL	-5271
ict	-5272
iln	-5273
▁32	-5274
hood	-5275
auses	-5276
▁Just	-5277
▁dedu	-5278
▁check	-5279
▁depth	-5280
▁Causes	-5281
▁headed	-5282
▁impart	-5283
▁stress	-5284
▁vacant	-5285
▁Physics	-5286
▁Einstein	-5287
▁disburse	-5288
▁performs	-5289
▁settling	-5290
▁occurring	-5291
▁proposals	-5292
▁acceptable	-5293
▁protective	-5294
▁Consolidated	-5295
▁administered	-5296
II	-5297
vt	-5298
𝐻0	-5299
▁52	-5300
▁75	-5301
▁𝑑𝑡	-5302
ATER	-5303
aday	-5304
orum	-5305
room	-5306
▁CON	-5307
▁SAL	-5308
(100%	-5309
▁buys	-5310
▁fund	-5311
▁shar	-5312
araday	-5313
▁alleg	-5314
▁∇2𝐸⃗⃗	-5315
▁Option	-5316
▁Ranjan	-5317
▁acidic	-5318
▁Sources	-5319
abilities	-5320
▁Judicial	-5321
▁tendency	-5322
▁socialism	-5323
▁characteristic	-5324
.(	-5325
AND	-5326
hic	-5327
life	-5328
worth	-5329
▁Stat	-5330
▁Trib	-5331
▁levy	-5332
▁pred	-5333
▁tele	-5334
▁bring	-5335
▁colle	-5336
▁likely	-5337
▁anaerobic	-5338
▁successful	-5339
▁precipitates	-5340
des	-5341
isk	-5342
ray	-5343
uff	-5344
▁MP	-5345
▁OR	-5346
ERAL	-5347
OREW	-5348
recy	-5349
▁10,	-5350
▁199	-5351
▁LAW	-5352
▁Lim	-5353
rates	-5354
▁INDI	-5355
▁Many	-5356
▁risk	-5357
▁FOREW	-5358
▁Short	-5359
▁Taxes	-5360
▁accum	-5361
▁paper	-5362
reasing	-5363
stances	-5364
▁Centre	-5365
▁Common	-5366
▁absorbs	-5367
▁concern	-5368
▁missing	-5369
▁portion	-5370
▁secrecy	-5371
▁Compound	-5372
▁FOREWORD	-5373
▁Marginal	-5374
▁interact	-5375
▁interface	-5376
▁assemblies	-5377
▁conversion	-5378
▁undertaken	-5379
)-	-5380
▁𝟏	-5381
ded	-5382
tax	-5383
▁81	-5384
▁Pr	-5385
ably	-5386
▁108	-5387
▁ins	-5388
𝑐𝑜𝑠𝜙	-5389
cious	-5390
ially	-5391
orter	-5392
▁CaSO	-5393
▁Form	-5394
▁kcal	-5395
▁Super	-5396
▁Cetane	-5397
▁scales	-5398
▁failure	-5399
▁payable	-5400
▁shorter	-5401
▁procedures	-5402
En	-5403
TA	-5404
𝑑𝑙	-5405
ars	-5406
egu	-5407
esh	-5408
oil	-5409
oul	-5410
unh	-5411
▁CH	-5412
▁Fac	-5413
▁ask	-5414
ossil	-5415
raunh	-5416
▁FEAT	-5417
abatic	-5418
eguard	-5419
▁Chain	-5420
▁Class	-5421
▁Ratio	-5422
▁Taste	-5423
▁color	-5424
▁green	-5425
bitrary	-5426
▁Comput	-5427
▁choice	-5428
▁destro	-5429
volution	-5430
▁Surface	-5431
▁cheques	-5432
▁decides	-5433
▁regions	-5434
▁FEATURES	-5435
▁backward	-5436
▁children	-5437
▁duration	-5438
▁multiple	-5439
▁proceeds	-5440
▁safeguard	-5441
▁convention	-5442
..(	-5443
ECU	-5444
▁Ext	-5445
▁fat	-5446
▁gap	-5447
▁Sche	-5448
▁able	-5449
▁docu	-5450
netism	-5451
▁EXECU	-5452
▁loses	-5453
▁reson	-5454
▁Credit	-5455
rological	-5456
▁chromium	-5457
▁starting	-5458
▁EXECUTIVE	-5459
▁Reduction	-5460
▁deposited	-5461
▁engineers	-5462
▁techniques	-5463
▁Concentration	-5464
OL	-5465
hy	-5466
cum	-5467
lay	-5468
▁2𝑎	-5469
▁US	-5470
▁xy	-5471
vice	-5472
▁(7)	-5473
▁197	-5474
▁Bis	-5475
▁smo	-5476
▁1949	-5477
▁𝐻⃗⃗)	-5478
hemist	-5479
▁civil	-5480
▁prove	-5481
▁write	-5482
▁Biswal	-5483
▁Figure	-5484
▁earned	-5485
▁filter	-5486
▁issued	-5487
▁compens	-5488
▁instead	-5489
▁nucleus	-5490
▁reverse	-5491
▁sulphur	-5492
▁empowers	-5493
▁zeolites	-5494
▁chairpers	-5495
▁purchasing	-5496
▁destruction	-5497
▁consultation	-5498
79	-5499
▁7)	-5500
berg	-5501
▁sex	-5502
▁uns	-5503
▁vap	-5504
▁𝜕𝑥+	-5505
cient	-5506
oidal	-5507
▁STAT	-5508
▁Power	-5509
▁caste	-5510
▁monop	-5511
▁offic	-5512
▁vehic	-5513
▁Effici	-5514
▁Aquatic	-5515
▁periodic	-5516
▁synthetic	-5517
▁Disposable	-5518
▁Efficiency	-5519
▁artificial	-5520
▁converting	-5521
▁depositors	-5522
▁calculations	-5523
PE	-5524
gs	-5525
ann	-5526
ony	-5527
▁EM	-5528
▁IC	-5529
rees	-5530
▁sil	-5531
▁DISC	-5532
▁neut	-5533
▁pros	-5534
▁sulp	-5535
ittees	-5536
▁Level	-5537
▁Reven	-5538
▁compl	-5539
▁grain	-5540
ivalent	-5541
▁Future	-5542
▁Octane	-5543
▁pulses	-5544
▁ruling	-5545
▁monthly	-5546
▁offered	-5547
▁started	-5548
▁travels	-5549
penditure	-5550
▁deterior	-5551
▁Secondary	-5552
▁controlled	-5553
▁foundation	-5554
▁reservation	-5555
,8,	-5556
ubl	-5557
ump	-5558
▁(0	-5559
ront	-5560
ulty	-5561
▁Pay	-5562
funct	-5563
▁Trip	-5564
▁ends	-5565
▁vert	-5566
▁Field	-5567
▁adopt	-5568
▁birth	-5569
▁stable	-5570
ationing	-5571
▁Balance	-5572
▁binding	-5573
▁cooling	-5574
▁harmful	-5575
roduction	-5576
▁confidence	-5577
▁combustible	-5578
▁expectation	-5579
▁manufacture	-5580
▁continuously	-5581
▁Characteristics	-5582
Act	-5583
asm	-5584
oda	-5585
ANTS	-5586
ENCE	-5587
osph	-5588
▁4.1	-5589
▁NNP	-5590
▁avo	-5591
ameral	-5592
octane	-5593
▁emits	-5594
▁great	-5595
▁never	-5596
▁Prices	-5597
▁assist	-5598
▁stream	-5599
▁Measure	-5600
▁branched	-5601
▁creditors	-5602
▁involving	-5603
▁LUBRICANTS	-5604
An	-5605
▁]	-5606
▁	-5607
20)	-5608
say	-5609
▁HCV	-5610
▁gly	-5611
endly	-5612
▁8000	-5613
▁coin	-5614
▁till	-5615
ludges	-5616
▁fresh	-5617
▁loads	-5618
▁plano	-5619
▁river	-5620
▁taste	-5621
riendly	-5622
▁sewage	-5623
ittivity	-5624
▁install	-5625
▁Emission	-5626
▁absorbed	-5627
▁Intensity	-5628
▁converted	-5629
▁resulting	-5630
▁Commercial	-5631
▁membership	-5632
▁differences	-5633
▁permittivity	-5634
11	-5635
19	-5636
If	-5637
TE	-5638
hi	-5639
▁ρ	-5640
𝑒𝑟	-5641
31.	-5642
ALR	-5643
olu	-5644
vii	-5645
▁2?	-5646
▁Pe	-5647
▁SL	-5648
▁𝜕𝑇	-5649
HIEF	-5650
ayak	-5651
oday	-5652
▁FIG	-5653
▁mac	-5654
▁mot	-5655
▁𝐵⃗⃗)	-5656
ductor	-5657
▁CHIEF	-5658
▁Nayak	-5659
▁Today	-5660
▁debts	-5661
▁FIGURE	-5662
▁Import	-5663
▁allows	-5664
otrophic	-5665
▁Account	-5666
▁Faraday	-5667
▁concent	-5668
▁depreci	-5669
▁thought	-5670
▁traders	-5671
▁Applying	-5672
▁district	-5673
▁vertical	-5674
▁Questions	-5675
▁subjected	-5676
▁substitutes	-5677
▁Biodiversity	-5678
cho	-5679
▁Sw	-5680
enes	-5681
raul	-5682
▁eqn	-5683
▁wax	-5684
Total	-5685
▁MgCO	-5686
▁deox	-5687
▁wast	-5688
raulic	-5689
▁heads	-5690
itrates	-5691
riminal	-5692
▁advant	-5693
▁belong	-5694
▁bodies	-5695
▁mathem	-5696
▁periods	-5697
▁secular	-5698
▁surplus	-5699
ygenation	-5700
▁eligible	-5701
▁criticism	-5702
▁turbidity	-5703
▁Prevention	-5704
▁deoxygenation	-5705
bo	-5706
▁u	-5707
ERV	-5708
ISM	-5709
▁OX	-5710
▁sy	-5711
eing	-5712
fall	-5713
rast	-5714
▁Cre	-5715
▁DEM	-5716
▁Rob	-5717
▁Rub	-5718
▁mtr	-5719
▁Coal	-5720
inants	-5721
itudes	-5722
▁5,000	-5723
▁CRITIC	-5724
▁Reserv	-5725
▁nearly	-5726
attering	-5727
▁bearing	-5728
▁reveals	-5729
▁commonly	-5730
▁discharg	-5731
▁estimate	-5732
▁Dissolved	-5733
▁amplitudes	-5734
▁guarantees	-5735
▁degradation	-5736
▁recommended	-5737
▁characterized	-5738
▁NH	-5739
inum	-5740
ulph	-5741
▁15,	-5742
▁Rec	-5743
allic	-5744
▁Mult	-5745
▁fram	-5746
achate	-5747
▁10000	-5748
▁usual	-5749
▁avoids	-5750
▁Methods	-5751
▁disulph	-5752
▁designed	-5753
▁examples	-5754
▁Different	-5755
▁Represent	-5756
▁boundaries	-5757
▁constitute	-5758
▁biogeochemical	-5759
3/	-5760
86	-5761
SC	-5762
com	-5763
dar	-5764
dis	-5765
mag	-5766
▁Ja	-5767
aluk	-5768
▁Exp	-5769
▁bed	-5770
▁lot	-5771
▁nam	-5772
ideep	-5773
▁Bhub	-5774
▁fear	-5775
▁race	-5776
▁says	-5777
▁𝐷⃗⃗.	-5778
,10,4)	-5779
▁Taluk	-5780
▁guide	-5781
▁mobil	-5782
aneswar	-5783
centage	-5784
▁cation	-5785
▁cooper	-5786
▁enough	-5787
▁evapor	-5788
▁giving	-5789
Articles	-5790
magnetic	-5791
▁Jaideep	-5792
▁SUPREME	-5793
▁Working	-5794
▁burning	-5795
▁exposed	-5796
▁furnace	-5797
▁Material	-5798
▁Talukdar	-5799
▁dissolves	-5800
▁amendments	-5801
▁Bhubaneswar	-5802
▁agriculture	-5803
▁Commissioner	-5804
▁independence	-5805
:1	-5806
3.3	-5807
▁𝑖̂	-5808
rely	-5809
▁Imp	-5810
▁eff	-5811
igher	-5812
(4,000	-5813
▁cells	-5814
400,000	-5815
▁Reactor	-5816
▁Science	-5817
▁reactor	-5818
(4,000,000)	-5819
▁Ecological	-5820
TB	-5821
▁𝒏	-5822
▁22	-5823
▁FC	-5824
▁Sn	-5825
ANCE	-5826
uing	-5827
work	-5828
ANCES	-5829
iston	-5830
thing	-5831
▁COMM	-5832
▁deep	-5833
▁feel	-5834
▁fees	-5835
MATION	-5836
▁INDIA	-5837
▁Fraunh	-5838
▁Houses	-5839
▁People	-5840
▁choose	-5841
▁excell	-5842
▁inflow	-5843
▁amongst	-5844
▁arrange	-5845
▁raising	-5846
▁engineer	-5847
▁facility	-5848
▁flexible	-5849
▁intended	-5850
▁minerals	-5851
▁Magnesium	-5852
▁Phosphate	-5853
▁Resources	-5854
▁insoluble	-5855
▁Lubricants	-5856
▁corresponds	-5857
▁establishes	-5858
▁liabilities	-5859
▁recommendation	-5860
Cha	-5861
REC	-5862
ems	-5863
lim	-5864
▁74	-5865
▁LP	-5866
▁ge	-5867
▁mv	-5868
▁my	-5869
LICY	-5870
▁(6)	-5871
▁1.0	-5872
▁15%	-5873
▁pie	-5874
▁unf	-5875
▁𝜕𝑦+	-5876
Chair	-5877
riming	-5878
▁DIREC	-5879
▁Point	-5880
▁build	-5881
▁polar	-5882
▁quick	-5883
▁shape	-5884
▁upper	-5885
▁POLICY	-5886
▁copper	-5887
▁easier	-5888
▁DIRECTIVE	-5889
▁reflection	-5890
0,	-5891
▁	-5892
▁	-5893
BOD	-5894
▁pH	-5895
1500	-5896
eric	-5897
eter	-5898
omer	-5899
▁FED	-5900
▁Inv	-5901
▁web	-5902
▁Data	-5903
▁Gram	-5904
▁Ruby	-5905
▁biod	-5906
▁fire	-5907
▁rail	-5908
▁susp	-5909
ptuary	-5910
▁inequ	-5911
▁procl	-5912
▁Americ	-5913
▁Assume	-5914
▁nation	-5915
▁stages	-5916
piration	-5917
▁FEDERAL	-5918
▁Sulphur	-5919
▁contempt	-5920
▁specified	-5921
▁sumptuary	-5922
▁allegiance	-5923
▁committees	-5924
▁Legislation	-5925
▁proclamation	-5926
sis	-5927
▁73	-5928
▁Fl	-5929
▁ON	-5930
athy	-5931
vate	-5932
▁diss	-5933
▁glob	-5934
50,000)	-5935
anchise	-5936
venient	-5937
▁arrows	-5938
▁costly	-5939
▁microb	-5940
▁Selling	-5941
▁Tripathy	-5942
▁reflects	-5943
▁excellent	-5944
▁pressures	-5945
▁tunneling	-5946
▁Alkalinity	-5947
▁processing	-5948
▁depreciable	-5949
▁distributed	-5950
▁organisation	-5951
/-	-5952
𝑘𝑧	-5953
ATT	-5954
HCl	-5955
olt	-5956
run	-5957
▁17	-5958
▁=2	-5959
▁Qd	-5960
dens	-5961
ened	-5962
ofer	-5963
omog	-5964
rams	-5965
▁(10	-5966
▁ASS	-5967
EMBLY	-5968
anged	-5969
archy	-5970
▁Recy	-5971
▁Step	-5972
▁blow	-5973
▁sale	-5974
▁scho	-5975
▁Fiber	-5976
▁Limit	-5977
▁chart	-5978
▁could	-5979
▁crude	-5980
▁soaps	-5981
▁twice	-5982
𝑘𝑥−𝑤𝑡)	-5983
▁Compon	-5984
▁JUDGES	-5985
▁behind	-5986
▁mixing	-5987
▁peroxy	-5988
▁Photons	-5989
▁assumes	-5990
▁directs	-5991
▁keeping	-5992
▁science	-5993
▁ASSEMBLY	-5994
▁RELATION	-5995
▁cracking	-5996
▁Selection	-5997
▁authorises	-5998
▁nomination	-5999
▁Accordingly	-6000
▁traditional	-6001
▁successfully	-6002
RS	-6003
▁ν	-6004
30)	-6005
▁Ir	-6006
▁Pt	-6007
▁𝜀0	-6008
eros	-6009
irds	-6010
▁eth	-6011
graph	-6012
orpor	-6013
▁home	-6014
ocking	-6015
roscop	-6016
▁Costs	-6017
▁reach	-6018
ainless	-6019
▁better	-6020
▁margin	-6021
stituting	-6022
▁incorpor	-6023
▁republic	-6024
▁marketing	-6025
▁objective	-6026
▁resistant	-6027
▁bicarbonates	-6028
82	-6029
𝑒+	-6030
ged	-6031
sin	-6032
▁Sa	-6033
▁sk	-6034
▁𝒏𝝀	-6035
rice	-6036
unal	-6037
▁TON	-6038
▁TVC	-6039
▁Long	-6040
▁room	-6041
▁𝜕2𝐸⃗	-6042
energy	-6043
▁crest	-6044
▁demon	-6045
▁fatty	-6046
▁litre	-6047
▁quota	-6048
▁radio	-6049
▁thank	-6050
▁12,000	-6051
▁Prepar	-6052
oluments	-6053
▁Aerobic	-6054
▁prevail	-6055
ibilities	-6056
▁maturity	-6057
▁coagulants	-6058
▁administers	-6059
▁frequencies	-6060
.0	-6061
2]	-6062
nm	-6063
of	-6064
▁45	-6065
▁=1	-6066
▁ca	-6067
▁−𝜙	-6068
duce	-6069
▁(15	-6070
▁Nal	-6071
▁Pat	-6072
echan	-6073
▁once	-6074
▁sent	-6075
aseous	-6076
icated	-6077
▁(∇⃗⃗.	-6078
▁bread	-6079
▁oblig	-6080
ecology	-6081
ocation	-6082
▁Mechan	-6083
▁STATES	-6084
▁boards	-6085
▁titles	-6086
retation	-6087
▁Density	-6088
▁Thermal	-6089
▁caustic	-6090
▁college	-6091
▁consent	-6092
▁indicate	-6093
▁Frequency	-6094
▁dangerous	-6095
▁exception	-6096
▁calculating	-6097
▁coordinates	-6098
▁electrolyte	-6099
▁limitations	-6100
{(	-6101
alk	-6102
inf	-6103
▁𝐷𝑛	-6104
ABHA	-6105
atch	-6106
pull	-6107
▁368	-6108
▁Env	-6109
▁vir	-6110
ommod	-6111
tered	-6112
▁Very	-6113
luding	-6114
▁SABHA	-6115
▁recip	-6116
▁toxic	-6117
▁branch	-6118
▁retire	-6119
▁superv	-6120
hemistry	-6121
▁accommod	-6122
▁diagrams	-6123
▁simplest	-6124
▁tendered	-6125
▁Functions	-6126
▁household	-6127
▁multimode	-6128
▁populated	-6129
▁authorised	-6130
▁containers	-6131
▁accommodation	-6132
▁contamination	-6133
▁sedimentation	-6134
▁=6	-6135
▁AL	-6136
000-	-6137
viii	-6138
▁End	-6139
▁Sus	-6140
▁aid	-6141
▁Book	-6142
▁curt	-6143
▁subs	-6144
▁front	-6145
▁inner	-6146
▁polym	-6147
▁toler	-6148
▁volat	-6149
▁Secret	-6150
▁corpor	-6151
ployment	-6152
▁Caustic	-6153
romagnetic	-6154
▁classroom	-6155
▁economist	-6156
▁tolerance	-6157
▁Contribution	-6158
▁Superposition	-6159
▁Electromagnetic	-6160
9%	-6161
go	-6162
𝑑𝑠	-6163
24)	-6164
IES	-6165
LID	-6166
OUS	-6167
due	-6168
▁(3	-6169
▁Ig	-6170
ABIN	-6171
PONS	-6172
vity	-6173
▁And	-6174
▁Dut	-6175
▁Opt	-6176
▁REP	-6177
▁STR	-6178
isons	-6179
▁Ampl	-6180
▁dign	-6181
▁repl	-6182
▁unst	-6183
ABINET	-6184
inuous	-6185
urated	-6186
▁disag	-6187
▁Assets	-6188
▁Design	-6189
▁Duties	-6190
▁almost	-6191
▁brings	-6192
▁curves	-6193
▁former	-6194
▁termed	-6195
▁CABINET	-6196
▁Optical	-6197
▁RESPONS	-6198
▁avoided	-6199
▁condens	-6200
▁dignity	-6201
▁gravity	-6202
▁soluble	-6203
▁Graphite	-6204
▁assuming	-6205
▁category	-6206
▁criminal	-6207
▁describe	-6208
▁unstable	-6209
▁Treatment	-6210
▁graphical	-6211
▁magnesium	-6212
▁Percentage	-6213
▁undertakes	-6214
▁Electronics	-6215
▁assumptions	-6216
▁permissible	-6217
▁RESPONSIBILITY	-6218
Px	-6219
▁?	-6220
▁+2	-6221
▁DU	-6222
MARR	-6223
▁10%,	-6224
▁Year	-6225
priate	-6226
▁knock	-6227
▁veget	-6228
▁DUTIES	-6229
▁Partic	-6230
400,000)	-6231
▁hydroph	-6232
▁Capacity	-6233
▁consumed	-6234
▁declares	-6235
▁ministry	-6236
▁abolition	-6237
▁inclusion	-6238
▁machinery	-6239
▁satisfied	-6240
▁vegetable	-6241
▁Increasing	-6242
▁disulphide	-6243
▁separation	-6244
▁appropriate	-6245
▁bicarbonate	-6246
HIP	-6247
but	-6248
ney	-6249
rat	-6250
▁FR	-6251
▁Kn	-6252
▁Lt	-6253
▁𝜆𝑅	-6254
NaCl	-6255
enic	-6256
izon	-6257
zing	-6258
▁(8)	-6259
▁105	-6260
▁AVC	-6261
▁Amb	-6262
▁EXP	-6263
▁Ion	-6264
▁Pet	-6265
▁RCO	-6266
▁fix	-6267
▁her	-6268
andom	-6269
arent	-6270
▁Reas	-6271
▁TERM	-6272
▁fair	-6273
▁fash	-6274
▁hope	-6275
▁rock	-6276
ussion	-6277
▁Amper	-6278
▁Anode	-6279
▁apply	-6280
▁hoard	-6281
▁plans	-6282
▁slits	-6283
▁tolls	-6284
ammable	-6285
▁OFFICE	-6286
▁execut	-6287
▁resins	-6288
▁resort	-6289
▁volunt	-6290
ceptible	-6291
▁Panchay	-6292
▁advises	-6293
▁capable	-6294
▁fashion	-6295
▁horizon	-6296
▁imposes	-6297
▁secures	-6298
▁Addition	-6299
▁Computer	-6300
▁accepted	-6301
▁dissolve	-6302
▁nominate	-6303
▁oxidized	-6304
▁Perfectly	-6305
▁diameters	-6306
▁emulsions	-6307
▁mechanism	-6308
▁sustained	-6309
▁technique	-6310
justiciable	-6311
▁monitoring	-6312
▁Governments	-6313
▁susceptible	-6314
▁simultaneously	-6315
Vs	-6316
gm	-6317
wh	-6318
1,3	-6319
ada	-6320
eth	-6321
rel	-6322
▁..	-6323
▁24	-6324
▁Jo	-6325
▁Enc	-6326
▁GPP	-6327
▁Run	-6328
▁fam	-6329
acent	-6330
▁−𝜙2)	-6331
ateful	-6332
▁Metal	-6333
▁kinds	-6334
▁medic	-6335
▁unlim	-6336
ctional	-6337
▁errors	-6338
▁provin	-6339
▁raised	-6340
▁Problem	-6341
▁alkanes	-6342
▁feature	-6343
▁adjacent	-6344
▁grateful	-6345
▁approving	-6346
▁unlimited	-6347
▁variables	-6348
▁saturation	-6349
);	-6350
ze	-6351
ɸE	-6352
▁𝝀	-6353
Indi	-6354
SAGA	-6355
umes	-6356
▁Add	-6357
▁bur	-6358
▁mor	-6359
▁sun	-6360
EPEND	-6361
asant	-6362
osion	-6363
osite	-6364
Indian	-6365
ashing	-6366
▁alter	-6367
▁seven	-6368
ributes	-6369
▁Health	-6370
▁alkali	-6371
▁analys	-6372
▁buying	-6373
▁extends	-6374
▁mirrors	-6375
▁Academic	-6376
▁Autonomy	-6377
▁Estimate	-6378
▁INDEPEND	-6379
▁vehicles	-6380
▁CRITICISM	-6381
▁Catalytic	-6382
▁distribut	-6383
▁Filtration	-6384
▁Originally	-6385
▁dispersive	-6386
▁scattering	-6387
▁Lubricating	-6388
)(	-6389
44	-6390
gon	-6391
gue	-6392
ini	-6393
Kcal	-6394
cost	-6395
ingh	-6396
ship	-6397
▁Ele	-6398
▁ash	-6399
▁Vote	-6400
▁neat	-6401
convex	-6402
ulsory	-6403
▁Singh	-6404
▁Change	-6405
▁Higher	-6406
▁double	-6407
▁shares	-6408
▁angular	-6409
▁rubbing	-6410
▁tangible	-6411
▁electrode	-6412
▁prohibits	-6413
▁commission	-6414
▁compulsory	-6415
▁influenced	-6416
▁restricted	-6417
▁examination	-6418
▁Representation	-6419
6(	-6420
AJ	-6421
Th	-6422
𝟐𝒏	-6423
oir	-6424
ran	-6425
yed	-6426
▁da	-6427
▁pw	-6428
REAS	-6429
cipl	-6430
phot	-6431
rays	-6432
that	-6433
▁120	-6434
▁600	-6435
▁ITS	-6436
▁Pow	-6437
egree	-6438
▁Anti	-6439
▁PROC	-6440
▁cold	-6441
▁diox	-6442
(0.15)	-6443
ISSION	-6444
omatic	-6445
roller	-6446
▁PRIME	-6447
▁Scale	-6448
▁shear	-6449
▁silic	-6450
▁tools	-6451
▁white	-6452
endence	-6453
omogene	-6454
ranular	-6455
▁DEMAND	-6456
▁Proper	-6457
▁leaves	-6458
▁slopes	-6459
▁tribal	-6460
▁Faculty	-6461
▁Mention	-6462
▁nuclear	-6463
▁prepare	-6464
▁American	-6465
▁Galvanic	-6466
▁Standing	-6467
▁collects	-6468
▁investig	-6469
▁Statement	-6470
▁basically	-6471
▁destroyed	-6472
▁exchanger	-6473
▁solutions	-6474
▁Components	-6475
▁prescribed	-6476
▁structures	-6477
▁Distinguish	-6478
▁Lubrication	-6479
▁possibility	-6480
▁conditioning	-6481
▁establishing	-6482
▁untouchability	-6483
gt	-6484
2),	-6485
ale	-6486
hol	-6487
ina	-6488
ken	-6489
▁Dn	-6490
▁ED	-6491
▁	-6492
ours	-6493
▁Gra	-6494
atisf	-6495
light	-6496
▁Over	-6497
▁prin	-6498
▁enact	-6499
▁gener	-6500
▁names	-6501
▁still	-6502
heduled	-6503
▁Heisen	-6504
▁advert	-6505
▁arrest	-6506
▁levied	-6507
▁spirit	-6508
▁culture	-6509
▁release	-6510
tenuation	-6511
▁Moisture	-6512
▁Scheduled	-6513
▁Heisenberg	-6514
▁collective	-6515
▁incoherent	-6516
▁profession	-6517
▁distinction	-6518
▁consequently	-6519
1]	-6520
:?	-6521
DS	-6522
Lt	-6523
hr	-6524
,00	-6525
1.2	-6526
BLE	-6527
duc	-6528
oke	-6529
▁𝑑𝜃	-6530
FFIR	-6531
iers	-6532
▁(3.	-6533
▁(𝑒+	-6534
▁Arc	-6535
▁Lat	-6536
▁Ord	-6537
▁ago	-6538
▁aux	-6539
▁wet	-6540
ayers	-6541
duces	-6542
fined	-6543
iring	-6544
ocate	-6545
▁8190	-6546
▁bulk	-6547
ensing	-6548
iliary	-6549
▁AFFIR	-6550
▁Minim	-6551
▁Organ	-6552
▁Stoke	-6553
▁adult	-6554
▁dilig	-6555
▁frame	-6556
▁handy	-6557
▁rough	-6558
▁200000	-6559
▁Impact	-6560
▁Taking	-6561
▁detail	-6562
▁worked	-6563
▁Pyramid	-6564
▁demonst	-6565
▁finally	-6566
▁happens	-6567
▁offence	-6568
▁schemes	-6569
▁2,00,000	-6570
▁Calorific	-6571
▁Equations	-6572
▁Materials	-6573
▁auxiliary	-6574
▁withdrawn	-6575
▁GOVERNMENT	-6576
▁correspond	-6577
▁diligently	-6578
▁horizontal	-6579
▁AFFIRMATION	-6580
▁constituents	-6581
6+	-6582
6,	-6583
km	-6584
▁36	-6585
4090	-6586
ales	-6587
arse	-6588
part	-6589
▁DDB	-6590
▁Sin	-6591
arine	-6592
ctors	-6593
icted	-6594
▁aims	-6595
▁base	-6596
▁dead	-6597
▁mark	-6598
▁tear	-6599
cially	-6600
▁expiry	-6601
▁merely	-6602
▁reject	-6603
▁Priming	-6604
▁differs	-6605
▁granted	-6606
ineration	-6607
▁treating	-6608
▁advancing	-6609
▁comparing	-6610
▁emulsifier	-6611
▁compounding	-6612
▁emergencies	-6613
ARD	-6614
LAI	-6615
SiO	-6616
aff	-6617
amp	-6618
▁63	-6619
▁UV	-6620
(0.2	-6621
mann	-6622
oltz	-6623
time	-6624
▁195	-6625
price	-6626
▁Comb	-6627
▁Dest	-6628
▁Give	-6629
▁Kcal	-6630
▁Rech	-6631
▁emit	-6632
▁infl	-6633
▁publ	-6634
LAIMER	-6635
necess	-6636
▁WATER	-6637
▁brief	-6638
▁incap	-6639
▁works	-6640
itative	-6641
mission	-6642
▁elects	-6643
▁explan	-6644
▁lather	-6645
▁phenol	-6646
oltzmann	-6647
▁January	-6648
▁advance	-6649
▁desires	-6650
▁extract	-6651
▁persist	-6652
▁Personal	-6653
▁Recharge	-6654
▁resonant	-6655
▁softened	-6656
▁transact	-6657
▁Chemistry	-6658
▁Synthesis	-6659
▁agreement	-6660
▁carbonate	-6661
▁separated	-6662
▁violative	-6663
▁DISCLAIMER	-6664
▁convenient	-6665
▁experience	-6666
▁ordinances	-6667
▁prevailing	-6668
▁Maintenance	-6669
▁atmospheric	-6670
▁educational	-6671
Environmental	-6672
73	-6673
78	-6674
=?	-6675
Pb	-6676
ker	-6677
ots	-6678
⃗⃗⃗	-6679
▁Et	-6680
▁Ge	-6681
▁vs	-6682
(∇⃗⃗	-6683
▁Are	-6684
▁die	-6685
▁iso	-6686
arget	-6687
izing	-6688
posed	-6689
ptane	-6690
▁plus	-6691
▁aware	-6692
▁extra	-6693
▁Solids	-6694
▁simply	-6695
▁teleph	-6696
oitation	-6697
▁entrust	-6698
▁framers	-6699
▁sludges	-6700
▁varying	-6701
▁∇⃗⃗(∇⃗⃗	-6702
▁advanced	-6703
▁advisory	-6704
▁interests	-6705
▁assessment	-6706
▁multiplied	-6707
RA	-6708
10-	-6709
LAS	-6710
elf	-6711
▁=3	-6712
▁Av	-6713
▁Do	-6714
▁Sk	-6715
arts	-6716
gust	-6717
▁107	-6718
▁OYF	-6719
▁Vis	-6720
▁let	-6721
▁oce	-6722
annel	-6723
secut	-6724
▁Less	-6725
▁hier	-6726
▁ligh	-6727
▁sugg	-6728
itrate	-6729
overed	-6730
▁Grant	-6731
▁Purch	-6732
▁cheap	-6733
▁finds	-6734
▁lapse	-6735
▁speak	-6736
olation	-6737
▁August	-6738
▁option	-6739
▁outlay	-6740
▁porous	-6741
▁secret	-6742
▁starts	-6743
otential	-6744
▁Annuity	-6745
▁Private	-6746
▁Program	-6747
▁lighter	-6748
▁quickly	-6749
▁Decrease	-6750
▁JUDICIAL	-6751
▁consecut	-6752
▁receives	-6753
▁training	-6754
▁Transport	-6755
▁bicameral	-6756
▁sovereign	-6757
▁Limitations	-6758
▁regulations	-6759
▁Interference	-6760
▁deterioration	-6761
ym	-6762
ores	-6763
▁Abs	-6764
▁HCl	-6765
▁San	-6766
▁She	-6767
▁dro	-6768
asion	-6769
iotic	-6770
level	-6771
▁Post	-6772
▁cert	-6773
rowave	-6774
ustion	-6775
▁macro	-6776
▁desire	-6777
▁divers	-6778
▁promot	-6779
▁reside	-6780
▁cabinet	-6781
▁details	-6782
▁station	-6783
▁willing	-6784
infection	-6785
▁prevents	-6786
▁Secretary	-6787
▁excessive	-6788
▁fractions	-6789
▁Collection	-6790
▁propagating	-6791
▁instructions	-6792
▁Parliamentary	-6793
24	-6794
aq	-6795
𝑑𝑣	-6796
ICS	-6797
urs	-6798
▁EC	-6799
▁MC	-6800
▁hv	-6801
aque	-6802
isis	-6803
▁Alg	-6804
▁emf	-6805
cible	-6806
▁(2.3	-6807
▁2016	-6808
▁8500	-6809
▁Meas	-6810
▁Zeol	-6811
▁dust	-6812
▁jobs	-6813
▁pref	-6814
▁⃗⃗𝑑𝑣	-6815
apping	-6816
▁began	-6817
▁delay	-6818
▁Nalini	-6819
▁Source	-6820
▁defend	-6821
▁opaque	-6822
▁summon	-6823
▁trough	-6824
▁Zeolite	-6825
▁growing	-6826
▁utility	-6827
etization	-6828
▁Measures	-6829
▁contract	-6830
▁crystall	-6831
▁freedoms	-6832
▁standing	-6833
▁advantage	-6834
▁arbitrary	-6835
▁behaviour	-6836
▁conductor	-6837
▁describes	-6838
▁extremely	-6839
▁questions	-6840
▁Dispersion	-6841
▁emoluments	-6842
▁opposition	-6843
▁discharging	-6844
▁investments	-6845
▁Introduction	-6846
5,	-6847
pe	-6848
120	-6849
2)2	-6850
ley	-6851
▁1-	-6852
▁mm	-6853
land	-6854
reed	-6855
▁20%	-6856
▁SCs	-6857
▁[𝑖̂	-6858
▁lat	-6859
0000(	-6860
legal	-6861
plets	-6862
▁(10)	-6863
▁Uses	-6864
▁carb	-6865
▁duly	-6866
▁suff	-6867
▁weld	-6868
utroph	-6869
▁Means	-6870
▁buyer	-6871
▁depop	-6872
▁illum	-6873
▁Amount	-6874
▁animal	-6875
▁happen	-6876
▁Cathode	-6877
▁Deposit	-6878
▁carries	-6879
▁integer	-6880
▁reaches	-6881
▁dividing	-6882
▁currently	-6883
▁employees	-6884
▁identical	-6885
▁wavefunct	-6886
▁Incoherent	-6887
▁approaches	-6888
utrophication	-6889
▁fractionating	-6890
▁proportionate	-6891
1/	-6892
RH	-6893
▁𝑃	-6894
▁Is	-6895
alid	-6896
orus	-6897
outh	-6898
rain	-6899
▁Ear	-6900
▁rod	-6901
▁Sulp	-6902
▁conc	-6903
▁rech	-6904
▁wear	-6905
ulence	-6906
▁25000	-6907
▁pipes	-6908
▁forced	-6909
▁fossil	-6910
▁transp	-6911
idential	-6912
osphorus	-6913
▁debtors	-6914
▁ensures	-6915
▁falling	-6916
▁hazards	-6917
▁invalid	-6918
▁reports	-6919
▁charging	-6920
▁Effective	-6921
▁Keynesian	-6922
▁Turbidity	-6923
▁conserved	-6924
▁adjustment	-6925
▁Depreciable	-6926
▁Mathematics	-6927
▁equivalence	-6928
▁appointments	-6929
▁understanding	-6930
▁underdeveloped	-6931
13	-6932
µ0	-6933
▁𝑐	-6934
▁=4	-6935
▁OA	-6936
▁Po	-6937
▁dB	-6938
▁dl	-6939
gall	-6940
lete	-6941
▁Med	-6942
▁nth	-6943
▁(0.1	-6944
▁Soil	-6945
▁sess	-6946
▁unem	-6947
solete	-6948
▁flash	-6949
▁holes	-6950
▁media	-6951
▁quite	-6952
▁unity	-6953
▁Marine	-6954
▁Review	-6955
economic	-6956
▁arising	-6957
▁friendly	-6958
▁sessions	-6959
▁statement	-6960
▁preventing	-6961
▁protecting	-6962
▁definitions	-6963
▁hydrological	-6964
▁photoelectron	-6965
𝑘𝑦	-6966
2.5	-6967
ger	-6968
oks	-6969
iles	-6970
line	-6971
▁Adv	-6972
▁SEC	-6973
▁viz	-6974
erred	-6975
racks	-6976
vered	-6977
▁QUAL	-6978
RESENT	-6979
▁Appro	-6980
▁MACRS	-6981
▁Monod	-6982
▁moral	-6983
▁perme	-6984
▁Degree	-6985
▁Invest	-6986
▁piston	-6987
pecially	-6988
▁Pitting	-6989
▁Revenue	-6990
▁coating	-6991
▁opening	-6992
▁handling	-6993
▁location	-6994
▁organism	-6995
▁replaced	-6996
▁shortage	-6997
osynthesis	-6998
▁Amplitude	-6999
▁REPRESENT	-7000
▁attention	-7001
▁iteration	-7002
▁Continuous	-7003
▁Expenditure	-7004
▁description	-7005
▁interfering	-7006
▁recognition	-7007
▁opportunities	-7008
▁QUALIFICATIONS	-7009
▁REPRESENTATION	-7010
cm	-7011
abus	-7012
ativ	-7013
nity	-7014
▁0.1	-7015
▁DRE	-7016
▁Syn	-7017
7,000	-7018
istor	-7019
▁Soda	-7020
▁elim	-7021
▁lect	-7022
▁prec	-7023
▁road	-7024
▁syll	-7025
letion	-7026
▁Board	-7027
▁Const	-7028
▁rural	-7029
entures	-7030
▁Altern	-7031
▁Proced	-7032
▁glycol	-7033
▁sphere	-7034
aternity	-7035
▁Members	-7036
▁Disposal	-7037
▁enforced	-7038
▁inclined	-7039
▁lectures	-7040
▁spectral	-7041
▁standard	-7042
▁syllabus	-7043
▁valuable	-7044
▁∇⃗⃗(∇⃗⃗.	-7045
▁Activated	-7046
▁Subsidies	-7047
▁shortages	-7048
▁Evaluation	-7049
▁Calculation	-7050
▁Proportional	-7051
▁Transferable	-7052
6%	-7053
ug	-7054
𝑒𝑎	-7055
ano	-7056
ati	-7057
▁-2	-7058
▁PH	-7059
𝑟𝑒𝑎	-7060
ASTE	-7061
abil	-7062
ming	-7063
▁Whe	-7064
▁suc	-7065
▁vib	-7066
-----	-7067
olves	-7068
omass	-7069
▁kiln	-7070
▁neon	-7071
▁sand	-7072
▁stay	-7073
𝐸⃗⃗.𝐽	-7074
quired	-7075
urious	-7076
▁Cross	-7077
▁coinc	-7078
▁erest	-7079
▁ether	-7080
▁guard	-7081
▁penet	-7082
▁piece	-7083
▁sense	-7084
(𝑘𝑥−𝑤𝑡)	-7085
ecution	-7086
ildlife	-7087
▁Grants	-7088
▁Matter	-7089
▁Powers	-7090
▁finite	-7091
▁phones	-7092
granular	-7093
▁Auditor	-7094
▁Benefit	-7095
▁Heating	-7096
▁Reasons	-7097
▁Whether	-7098
▁biomass	-7099
▁solving	-7100
▁succeed	-7101
▁Integral	-7102
▁Ordinary	-7103
▁Circuital	-7104
▁qualified	-7105
▁specially	-7106
▁intangible	-7107
▁operations	-7108
▁communities	-7109
▁emulsifying	-7110
▁Additionally	-7111
▁disbursements	-7112
CH	-7113
YP	-7114
lyb	-7115
zed	-7116
▁LC	-7117
▁Ro	-7118
YPES	-7119
atom	-7120
▁3.1	-7121
▁Haw	-7122
▁STs	-7123
denum	-7124
rence	-7125
▁0.45	-7126
▁200%	-7127
▁Good	-7128
prises	-7129
▁TYPES	-7130
▁doing	-7131
▁tanks	-7132
▁users	-7133
▁valid	-7134
ruption	-7135
▁atomic	-7136
▁extend	-7137
▁filled	-7138
▁ignite	-7139
▁smooth	-7140
lybdenum	-7141
▁Changes	-7142
▁Theorem	-7143
▁deficit	-7144
▁express	-7145
▁outflow	-7146
▁document	-7147
▁inherent	-7148
▁preserve	-7149
▁introduce	-7150
▁Biological	-7151
▁completely	-7152
▁ministries	-7153
▁occurrence	-7154
▁successive	-7155
▁Information	-7156
28	-7157
edk	-7158
eed	-7159
glo	-7160
▁QU	-7161
▁Up	-7162
ISTR	-7163
▁(𝐴1	-7164
▁Deb	-7165
▁Mis	-7166
▁sen	-7167
eated	-7168
edkar	-7169
ember	-7170
rison	-7171
ritus	-7172
tical	-7173
▁10-3	-7174
▁2020	-7175
▁Sedi	-7176
▁UNIT	-7177
▁surv	-7178
▁Anglo	-7179
▁Being	-7180
▁Delhi	-7181
▁LASER	-7182
▁burns	-7183
▁oaths	-7184
▁firmly	-7185
▁incase	-7186
▁joints	-7187
▁pathog	-7188
▁random	-7189
▁senior	-7190
cladding	-7191
ediately	-7192
▁(𝑘𝑥−𝑤𝑡+	-7193
▁Conduct	-7194
▁adjourn	-7195
▁ignites	-7196
▁profile	-7197
▁Ambedkar	-7198
▁protects	-7199
▁taxation	-7200
▁transmit	-7201
▁versions	-7202
▁catalytic	-7203
▁franchise	-7204
omerization	-7205
▁accumulate	-7206
▁fraternity	-7207
▁arrangement	-7208
▁effectively	-7209
▁prospective	-7210
▁replacement	-7211
▁Biogeochemical	-7212
▁Mathematically	-7213
,9	-7214
/2	-7215
1+	-7216
dt	-7217
aun	-7218
▁Hu	-7219
▁VI	-7220
▁{(	-7221
1.52	-7222
come	-7223
▁unw	-7224
▁ABOL	-7225
▁Giff	-7226
▁Oxid	-7227
carbon	-7228
itures	-7229
orable	-7230
▁entry	-7231
▁yield	-7232
▁anodes	-7233
ifferent	-7234
▁gradual	-7235
▁removing	-7236
▁ABOLITION	-7237
▁companies	-7238
▁conscious	-7239
▁construct	-7240
▁liberated	-7241
▁nominates	-7242
▁practical	-7243
▁Schrodinge	-7244
▁administer	-7245
▁economists	-7246
▁reflecting	-7247
▁approximate	-7248
▁cooperative	-7249
▁illustrated	-7250
▁introduction	-7251
WE	-7252
gu	-7253
▁𝐹	-7254
EGR	-7255
▁61	-7256
▁Ev	-7257
▁Mn	-7258
955.	-7259
ETWE	-7260
THER	-7261
alog	-7262
ique	-7263
▁-1,	-7264
▁106	-7265
▁12,	-7266
▁Dig	-7267
▁EAW	-7268
▁Sem	-7269
▁did	-7270
▁las	-7271
EDURE	-7272
ITIES	-7273
egrad	-7274
rehen	-7275
rower	-7276
▁----	-7277
▁HIGH	-7278
▁foam	-7279
▁soon	-7280
ETWEEN	-7281
ellate	-7282
siders	-7283
▁Divid	-7284
▁OTHER	-7285
▁POWER	-7286
▁accel	-7287
▁incom	-7288
▁meets	-7289
▁sizes	-7290
▁stagn	-7291
▁women	-7292
EGRATED	-7293
vernors	-7294
▁Leader	-7295
▁Vector	-7296
▁export	-7297
▁lasers	-7298
▁permit	-7299
▁report	-7300
▁unique	-7301
▁BETWEEN	-7302
▁Systems	-7303
▁Through	-7304
▁denotes	-7305
▁dioxide	-7306
▁discipl	-7307
▁foaming	-7308
▁Agricult	-7309
▁Leachate	-7310
▁Spectral	-7311
▁borrower	-7312
▁enforces	-7313
omogeneous	-7314
▁Agreement	-7315
▁Automatic	-7316
▁Community	-7317
▁Governors	-7318
▁PROCEDURE	-7319
▁Viscosity	-7320
▁estimates	-7321
▁evaluated	-7322
▁outsiders	-7323
▁propagate	-7324
▁undergoes	-7325
▁withstand	-7326
▁INTEGRATED	-7327
▁discretion	-7328
▁productive	-7329
▁Comptroller	-7330
▁Instruments	-7331
▁complicated	-7332
▁explanation	-7333
▁graphically	-7334
▁Jurisdiction	-7335
▁continuation	-7336
▁significantly	-7337
▁0.003($50,000)	-7338
▁MUNICIPALITIES	-7339
)}	-7340
74	-7341
35.	-7342
𝐷⃗⃗	-7343
hane	-7344
ieve	-7345
itic	-7346
▁COD	-7347
▁LCV	-7348
▁Mes	-7349
▁esc	-7350
cohol	-7351
imals	-7352
versa	-7353
▁Like	-7354
▁away	-7355
▁save	-7356
▁vice	-7357
istant	-7358
▁Black	-7359
▁agree	-7360
▁cloud	-7361
▁sites	-7362
▁versa	-7363
ception	-7364
ilation	-7365
▁ideals	-7366
▁scient	-7367
▁plastic	-7368
risonment	-7369
▁1,20,000	-7370
▁rationing	-7371
▁spreading	-7372
▁Industrial	-7373
▁evaporation	-7374
▁imprisonment	-7375
)]	-7376
AM	-7377
RD	-7378
Vw	-7379
….	-7380
105	-7381
454	-7382
600	-7383
8.2	-7384
=2-	-7385
IGN	-7386
LOW	-7387
VIS	-7388
ula	-7389
▁+1	-7390
▁38	-7391
▁RE	-7392
▁𝐼𝑚	-7393
▁𝐽⃗	-7394
▁𝑣⃗	-7395
NaOH	-7396
OVAL	-7397
REAM	-7398
Step	-7399
lium	-7400
prop	-7401
▁Div	-7402
▁adi	-7403
▁pic	-7404
▁tin	-7405
UBLIC	-7406
▁+100	-7407
▁2𝑎2(	-7408
▁MATT	-7409
▁dict	-7410
▁sets	-7411
▁wire	-7412
25,000	-7413
advant	-7414
ancing	-7415
▁ALLOW	-7416
▁Again	-7417
▁Bimal	-7418
▁Meher	-7419
▁PREAM	-7420
▁exten	-7421
Benefit	-7422
▁Acting	-7423
▁Helium	-7424
▁Latent	-7425
▁SALARY	-7426
▁Sounds	-7427
▁became	-7428
▁crests	-7429
▁guides	-7430
administ	-7431
▁DISQUAL	-7432
▁Formula	-7433
▁MATTERS	-7434
▁acquire	-7435
▁disqual	-7436
▁execute	-7437
▁facilit	-7438
▁induces	-7439
▁picture	-7440
▁strikes	-7441
advantage	-7442
economies	-7443
▁PREAMBLE	-7444
▁Particle	-7445
▁agencies	-7446
▁creating	-7447
▁improved	-7448
▁promotes	-7449
▁quantify	-7450
▁superint	-7451
allocation	-7452
▁Anaerobic	-7453
▁adiabatic	-7454
▁extension	-7455
▁sincerely	-7456
▁ALLOWANCES	-7457
▁COMMISSION	-7458
▁Equivalent	-7459
▁Individual	-7460
▁conducting	-7461
▁consecutive	-7462
▁constitutes	-7463
▁Legislatures	-7464
▁disadvantage	-7465
▁diseconomies	-7466
▁environments	-7467
▁PARLIAMENTARY	-7468
▁superintendence	-7469
22	-7470
li	-7471
⃗=	-7472
2.8	-7473
ade	-7474
hel	-7475
▁(-	-7476
▁1:	-7477
▁Ct	-7478
ocal	-7479
ynam	-7480
▁(𝑖̂	-7481
▁CaZ	-7482
acted	-7483
arded	-7484
utory	-7485
▁Path	-7486
▁auto	-7487
▁kept	-7488
▁unch	-7489
aching	-7490
inites	-7491
thirds	-7492
▁Local	-7493
▁sharp	-7494
erosene	-7495
roscale	-7496
▁broken	-7497
▁estate	-7498
▁excise	-7499
▁graded	-7500
▁lowest	-7501
▁stocks	-7502
▁Foaming	-7503
▁exactly	-7504
▁pricing	-7505
▁request	-7506
▁section	-7507
ventional	-7508
▁Electric	-7509
▁Problems	-7510
▁Straight	-7511
▁cleaning	-7512
▁filtered	-7513
▁rainfall	-7514
government	-7515
initesimal	-7516
▁Screening	-7517
▁Universal	-7518
▁circuital	-7519
▁compacted	-7520
▁discarded	-7521
▁encourage	-7522
▁landfills	-7523
▁anticipated	-7524
▁infinitesimal	-7525
▁interpolation	-7526
)+	-7527
BR	-7528
−3	-7529
ELL	-7530
ERY	-7531
aps	-7532
rie	-7533
▁95	-7534
▁Di	-7535
▁Hy	-7536
▁NA	-7537
ords	-7538
phas	-7539
site	-7540
such	-7541
▁Nic	-7542
▁𝜕𝑧)	-7543
000-2	-7544
based	-7545
ithms	-7546
oping	-7547
utant	-7548
rieved	-7549
▁Algor	-7550
▁boost	-7551
▁overl	-7552
▁trays	-7553
▁	-7554
e	-7555
t	-7556
i	-7557
a	-7558
o	-7559
n	-7560
s	-7561
r	-7562
h	-7563
c	-7564
l	-7565
d	-7566
u	-7567
f	-7568
m	-7569
p	-7570
g	-7571
y	-7572
b	-7573
.	-7574
w	-7575
v	-7576
,	-7577
T	-7578
0	-7579
:	-7580
I	-7581
)	-7582
E	-7583
x	-7584
k	-7585
C	-7586
A	-7587
S	-7588
2	-7589
1	-7590
P	-7591
D	-7592
(	-7593
?	-7594
O	-7595
W	-7596
-	-7597
N	-7598
R	-7599
=	-7600
F	-7601
q	-7602
H	-7603
M	-7604
L	-7605
5	-7606
3	-7607
B	-7608
4	-7609
⃗	-7610
G	-7611
j	-7612
'	-7613
+	-7614
/	-7615
U	-7616
z	-7617
6	-7618
8	-7619
V	-7620
7	-7621
9	-7622
&	-7623
%	-7624
…	-7625
_	-7626
Q	-7627
Y	-7628
−	-7629
J	-7630
"	-7631
𝜕	-7632
;	-7633
𝐸	-7634
K	-7635
	-7636
𝑡	-7637
𝑖	-7638
	-7639
→	-7640
X	-7641
∇	-7642
𝑘	-7643
𝑑	-7644
×	-7645
>	-7646
[	-7647
]	-7648
	-7649
𝐴	-7650
𝑛	-7651
𝑥	-7652
	-7653
𝐻	-7654
𝑒	-7655
̂	-7656
𝑠	-7657
	-7658
𝜙	-7659
	-7660
Z	-7661
𝑤	-7662
𝑟	-7663
	-7664
	-7665
λ	-7666
𝐵	-7667
𝑎	-7668
µ	-7669
𝑦	-7670
𝑧	-7671
θ	-7672
<	-7673
	-7674
𝟐	-7675
𝑐	-7676
μ	-7677
𝜆	-7678
¬	-7679
ν	-7680
ε	-7681
$	-7682
	-7683
Å	-7684
*	-7685
	-7686
𝑇	-7687
𝐷	-7688
𝐽	-7689
√	-7690
𝑗	-7691
𝑜	-7692
	-7693
𝑣	-7694
ψ	-7695
°	-7696
𝜋	-7697
∆	-7698
	-7699
𝝀	-7700
𝒏	-7701
𝜇	-7702
𝐼	-7703
	-7704
	-7705
	-7706
	-7707
	-7708
	-7709
✓	-7710
∮	-7711
~	-7712
	-7713
±	-7714
𝑓	-7715
	-7716
𝜃	-7717
𝑅	-7718
𝟏	-7719
π	-7720
ɸ	-7721
𝑃	-7722
𝐹	-7723
𝑚	-7724
𝑙	-7725
𝜎	-7726
{	-7727
}	-7728
	-7729
	-7730
𝜀	-7731
ρ	-7732
ω	-7733
	-7734
	-7735
	-7736
	-7737
