<unk>	0
<s>	0
</s>	0
<|user|>	0
<|assistant|>	0
<|system|>	0
<0x00>	0
<0x01>	0
<0x02>	0
<0x03>	0
<0x04>	0
<0x05>	0
<0x06>	0
<0x07>	0
<0x08>	0
<0x09>	0
<0x0A>	0
<0x0B>	0
<0x0C>	0
<0x0D>	0
<0x0E>	0
<0x0F>	0
<0x10>	0
<0x11>	0
<0x12>	0
<0x13>	0
<0x14>	0
<0x15>	0
<0x16>	0
<0x17>	0
<0x18>	0
<0x19>	0
<0x1A>	0
<0x1B>	0
<0x1C>	0
<0x1D>	0
<0x1E>	0
<0x1F>	0
<0x20>	0
<0x21>	0
<0x22>	0
<0x23>	0
<0x24>	0
<0x25>	0
<0x26>	0
<0x27>	0
<0x28>	0
<0x29>	0
<0x2A>	0
<0x2B>	0
<0x2C>	0
<0x2D>	0
<0x2E>	0
<0x2F>	0
<0x30>	0
<0x31>	0
<0x32>	0
<0x33>	0
<0x34>	0
<0x35>	0
<0x36>	0
<0x37>	0
<0x38>	0
<0x39>	0
<0x3A>	0
<0x3B>	0
<0x3C>	0
<0x3D>	0
<0x3E>	0
<0x3F>	0
<0x40>	0
<0x41>	0
<0x42>	0
<0x43>	0
<0x44>	0
<0x45>	0
<0x46>	0
<0x47>	0
<0x48>	0
<0x49>	0
<0x4A>	0
<0x4B>	0
<0x4C>	0
<0x4D>	0
<0x4E>	0
<0x4F>	0
<0x50>	0
<0x51>	0
<0x52>	0
<0x53>	0
<0x54>	0
<0x55>	0
<0x56>	0
<0x57>	0
<0x58>	0
<0x59>	0
<0x5A>	0
<0x5B>	0
<0x5C>	0
<0x5D>	0
<0x5E>	0
<0x5F>	0
<0x60>	0
<0x61>	0
<0x62>	0
<0x63>	0
<0x64>	0
<0x65>	0
<0x66>	0
<0x67>	0
<0x68>	0
<0x69>	0
<0x6A>	0
<0x6B>	0
<0x6C>	0
<0x6D>	0
<0x6E>	0
<0x6F>	0
<0x70>	0
<0x71>	0
<0x72>	0
<0x73>	0
<0x74>	0
<0x75>	0
<0x76>	0
<0x77>	0
<0x78>	0
<0x79>	0
<0x7A>	0
<0x7B>	0
<0x7C>	0
<0x7D>	0
<0x7E>	0
<0x7F>	0
<0x80>	0
<0x81>	0
<0x82>	0
<0x83>	0
<0x84>	0
<0x85>	0
<0x86>	0
<0x87>	0
<0x88>	0
<0x89>	0
<0x8A>	0
<0x8B>	0
<0x8C>	0
<0x8D>	0
<0x8E>	0
<0x8F>	0
<0x90>	0
<0x91>	0
<0x92>	0
<0x93>	0
<0x94>	0
<0x95>	0
<0x96>	0
<0x97>	0
<0x98>	0
<0x99>	0
<0x9A>	0
<0x9B>	0
<0x9C>	0
<0x9D>	0
<0x9E>	0
<0x9F>	0
<0xA0>	0
<0xA1>	0
<0xA2>	0
<0xA3>	0
<0xA4>	0
<0xA5>	0
<0xA6>	0
<0xA7>	0
<0xA8>	0
<0xA9>	0
<0xAA>	0
<0xAB>	0
<0xAC>	0
<0xAD>	0
<0xAE>	0
<0xAF>	0
<0xB0>	0
<0xB1>	0
<0xB2>	0
<0xB3>	0
<0xB4>	0
<0xB5>	0
<0xB6>	0
<0xB7>	0
<0xB8>	0
<0xB9>	0
<0xBA>	0
<0xBB>	0
<0xBC>	0
<0xBD>	0
<0xBE>	0
<0xBF>	0
<0xC0>	0
<0xC1>	0
<0xC2>	0
<0xC3>	0
<0xC4>	0
<0xC5>	0
<0xC6>	0
<0xC7>	0
<0xC8>	0
<0xC9>	0
<0xCA>	0
<0xCB>	0
<0xCC>	0
<0xCD>	0
<0xCE>	0
<0xCF>	0
<0xD0>	0
<0xD1>	0
<0xD2>	0
<0xD3>	0
<0xD4>	0
<0xD5>	0
<0xD6>	0
<0xD7>	0
<0xD8>	0
<0xD9>	0
<0xDA>	0
<0xDB>	0
<0xDC>	0
<0xDD>	0
<0xDE>	0
<0xDF>	0
<0xE0>	0
<0xE1>	0
<0xE2>	0
<0xE3>	0
<0xE4>	0
<0xE5>	0
<0xE6>	0
<0xE7>	0
<0xE8>	0
<0xE9>	0
<0xEA>	0
<0xEB>	0
<0xEC>	0
<0xED>	0
<0xEE>	0
<0xEF>	0
<0xF0>	0
<0xF1>	0
<0xF2>	0
<0xF3>	0
<0xF4>	0
<0xF5>	0
<0xF6>	0
<0xF7>	0
<0xF8>	0
<0xF9>	0
<0xFA>	0
<0xFB>	0
<0xFC>	0
<0xFD>	0
<0xFE>	0
<0xFF>	0
▁t	-0
in	-1
he	-2
▁a	-3
re	-4
on	-5
▁o	-6
at	-7
▁the	-8
er	-9
▁c	-10
is	-11
es	-12
en	-13
▁of	-14
▁p	-15
▁s	-16
al	-17
an	-18
it	-19
ic	-20
ion	-21
▁in	-22
▁d	-23
▁w	-24
▁f	-25
ro	-26
ct	-27
▁b	-28
or	-29
ed	-30
▁m	-31
ing	-32
▁e	-33
▁is	-34
▁an	-35
ou	-36
ar	-37
▁T	-38
le	-39
as	-40
ent	-41
▁to	-42
▁and	-43
ve	-44
om	-45
▁The	-46
▁l	-47
st	-48
ation	-49
00	-50
▁re	-51
et	-52
▁I	-53
hat	-54
▁(	-55
ow	-56
▁D	-57
▁E	-58
▁W	-59
pl	-60
ll	-61
▁g	-62
ain	-63
▁pro	-64
▁A	-65
ri	-66
ce	-67
▁C	-68
▁h	-69
▁de	-70
▁are	-71
▁n	-72
▁S	-73
▁be	-74
um	-75
ur	-76
im	-77
▁for	-78
▁1	-79
qu	-80
▁=	-81
ut	-82
▁P	-83
▁y	-84
id	-85
ric	-86
ly	-87
us	-88
ra	-89
od	-90
▁con	-91
ul	-92
un	-93
ity	-94
ate	-95
os	-96
▁What	-97
▁ab	-98
il	-99
if	-100
ol	-101
ment	-102
du	-103
ig	-104
ot	-105
▁as	-106
rib	-107
▁ex	-108
ction	-109
▁v	-110
▁or	-111
out	-112
ch	-113
plain	-114
nt	-115
ge	-116
▁k	-117
▁you	-118
esc	-119
ant	-120
▁about	-121
▁st	-122
escrib	-123
and	-124
ir	-125
▁th	-126
▁Ex	-127
▁2	-128
escribe	-129
▁Describe	-130
iv	-131
▁r	-132
ect	-133
▁su	-134
▁on	-135
▁com	-136
ers	-137
ure	-138
▁kn	-139
▁at	-140
▁inc	-141
▁know	-142
ater	-143
▁M	-144
▁by	-145
ess	-146
▁en	-147
▁do	-148
ere	-149
▁In	-150
ith	-151
▁F	-152
▁B	-153
rom	-154
tic	-155
▁R	-156
lect	-157
⃗⃗	-158
▁wh	-159
▁with	-160
ble	-161
ave	-162
▁Explain	-163
ine	-164
▁pric	-165
▁N	-166
ter	-167
▁it	-168
ive	-169
em	-170
ue	-171
ci	-172
her	-173
am	-174
ay	-175
res	-176
per	-177
000	-178
▁produ	-179
▁+	-180
▁H	-181
act	-182
ich	-183
▁It	-184
▁can	-185
ies	-186
▁co	-187
▁that	-188
▁which	-189
th	-190
reas	-191
▁dem	-192
▁ch	-193
▁demand	-194
▁from	-195
ver	-196
igh	-197
se	-198
con	-199
ical	-200
ell	-201
gy	-202
ag	-203
▁per	-204
▁us	-205
▁-	-206
▁O	-207
▁al	-208
▁price	-209
▁elect	-210
▁water	-211
ad	-212
▁me	-213
all	-214
▁un	-215
▁sh	-216
ore	-217
hen	-218
ist	-219
ill	-220
▁Th	-221
..	-222
▁L	-223
able	-224
ial	-225
▁int	-226
ppl	-227
sion	-228
vel	-229
iff	-230
▁res	-231
▁&	-232
ld	-233
ome	-234
ition	-235
ff	-236
ac	-237
▁wave	-238
op	-239
ergy	-240
▁equ	-241
▁comp	-242
ak	-243
▁G	-244
ii	-245
▁le	-246
▁De	-247
ear	-248
ated	-249
our	-250
▁diff	-251
▁3	-252
ount	-253
ard	-254
▁go	-255
pos	-256
▁par	-257
,000	-258
ax	-259
ud	-260
▁sp	-261
ther	-262
▁increas	-263
est	-264
ank	-265
▁5	-266
ort	-267
ire	-268
pt	-269
end	-270
▁val	-271
actor	-272
▁suppl	-273
▁qu	-274
▁energy	-275
▁This	-276
▁po	-277
▁met	-278
conom	-279
lation	-280
▁fi	-281
cess	-282
▁cont	-283
ber	-284
age	-285
ast	-286
ary	-287
▁se	-288
here	-289
aus	-290
ating	-291
ace	-292
ap	-293
__	-294
▁form	-295
▁4	-296
ub	-297
▁we	-298
▁ph	-299
ange	-300
ust	-301
ime	-302
der	-303
▁ra	-304
ons	-305
ight	-306
▁If	-307
gh	-308
ous	-309
▁dis	-310
▁cost	-311
yst	-312
▁cons	-313
▁not	-314
ces	-315
▁inf	-316
ans	-317
ance	-318
▁he	-319
cc	-320
▁will	-321
iz	-322
▁am	-323
▁em	-324
ys	-325
erm	-326
▁An	-327
so	-328
ult	-329
▁there	-330
▁so	-331
▁factor	-332
▁cur	-333
▁pl	-334
▁ad	-335
▁other	-336
▁comm	-337
▁year	-338
rou	-339
▁0	-340
ual	-341
int	-342
▁supply	-343
▁value	-344
……	-345
ab	-346
ens	-347
ystem	-348
▁quant	-349
wo	-350
ari	-351
▁differe	-352
las	-353
▁10	-354
low	-355
▁ne	-356
▁rate	-357
▁this	-358
▁econom	-359
ould	-360
▁li	-361
ree	-362
▁im	-363
▁dep	-364
▁i	-365
▁Pro	-366
▁have	-367
ark	-368
ffect	-369
ates	-370
▁partic	-371
ject	-372
▁all	-373
▁what	-374
unction	-375
ution	-376
▁mo	-377
av	-378
▁time	-379
▁two	-380
▁when	-381
--	-382
▁exp	-383
▁wor	-384
ple	-385
▁mon	-386
▁also	-387
▁explain	-388
red	-389
▁As	-390
▁used	-391
aw	-392
di	-393
▁pres	-394
its	-395
ase	-396
▁Def	-397
ding	-398
ities	-399
port	-400
▁Rs	-401
▁pre	-402
▁more	-403
ite	-404
cul	-405
▁has	-406
▁good	-407
▁cor	-408
▁product	-409
oc	-410
⃗⃗⃗	-411
10	-412
ide	-413
▁Define	-414
iron	-415
nd	-416
▁state	-417
▁dec	-418
we	-419
ach	-420
orm	-421
▁function	-422
▁ind	-423
ents	-424
▁bet	-425
▁inv	-426
ence	-427
▁level	-428
▁process	-429
tern	-430
▁electr	-431
▁vari	-432
▁bank	-433
agn	-434
▁its	-435
ise	-436
▁Can	-437
gth	-438
ween	-439
ke	-440
▁Tell	-441
▁sc	-442
▁So	-443
ane	-444
▁bec	-445
▁point	-446
▁between	-447
hod	-448
ics	-449
ature	-450
viron	-451
ong	-452
ener	-453
hem	-454
ium	-455
▁quantity	-456
aste	-457
vironment	-458
alled	-459
rough	-460
up	-461
▁giv	-462
ts	-463
▁fo	-464
▁𝜕	-465
arket	-466
▁ag	-467
iod	-468
▁out	-469
▁sur	-470
ph	-471
▁op	-472
▁one	-473
ame	-474
▁their	-475
ause	-476
▁called	-477
▁production	-478
nce	-479
▁prices	-480
ign	-481
▁increase	-482
ey	-483
erest	-484
ength	-485
▁should	-486
▁ref	-487
cy	-488
ound	-489
▁bo	-490
▁high	-491
tain	-492
ative	-493
▁different	-494
▁income	-495
reci	-496
▁oil	-497
erv	-498
▁change	-499
▁num	-500
▁low	-501
ry	-502
▁:	-503
▁rem	-504
▁they	-505
rans	-506
arge	-507
....	-508
▁St	-509
etic	-510
▁sub	-511
pert	-512
dition	-513
▁pos	-514
yp	-515
▁There	-516
alcul	-517
gan	-518
▁fir	-519
▁metal	-520
▁light	-521
▁amount	-522
aterial	-523
▁than	-524
urn	-525
xed	-526
ind	-527
▁Q	-528
▁equation	-529
▁En	-530
▁may	-531
arg	-532
▁inflation	-533
pp	-534
▁surf	-535
▁system	-536
▁ac	-537
▁U	-538
▁6	-539
gen	-540
und	-541
50	-542
▁tem	-543
ep	-544
▁material	-545
ven	-546
▁When	-547
▁dist	-548
lud	-549
▁ass	-550
ally	-551
▁corro	-552
ip	-553
▁spe	-554
ions	-555
▁through	-556
____	-557
ness	-558
▁sal	-559
▁given	-560
gine	-561
length	-562
▁commod	-563
▁0.	-564
▁if	-565
hemical	-566
▁law	-567
▁period	-568
ings	-569
▁due	-570
ources	-571
ants	-572
▁trans	-573
agnetic	-574
ved	-575
▁effect	-576
▁where	-577
ible	-578
▁goods	-579
ied	-580
el	-581
eterm	-582
ef	-583
▁particle	-584
2)	-585
▁number	-586
▁curve	-587
▁market	-588
olo	-589
▁same	-590
ost	-591
llow	-592
ensity	-593
▁gener	-594
▁V	-595
aser	-596
▁like	-597
▁Con	-598
▁project	-599
▁Com	-600
▁interest	-601
▁sol	-602
▁follow	-603
ility	-604
▁such	-605
ced	-606
▁const	-607
ang	-608
reciation	-609
▁electric	-610
▁consum	-611
).	-612
▁dire	-613
yd	-614
▁1.	-615
▁wavelength	-616
ments	-617
itt	-618
▁They	-619
▁act	-620
cept	-621
ubric	-622
▁phot	-623
CO	-624
ass	-625
▁inter	-626
▁8	-627
axim	-628
▁under	-629
▁result	-630
ctor	-631
asure	-632
▁money	-633
▁'	-634
▁di	-635
perature	-636
▁over	-637
ific	-638
▁maxim	-639
▁corrosion	-640
▁typ	-641
▁environment	-642
rin	-643
.1	-644
▁ve	-645
▁because	-646
ering	-647
velop	-648
lastic	-649
ie	-650
ose	-651
▁These	-652
▁these	-653
cond	-654
ency	-655
tc	-656
▁etc	-657
own	-658
ential	-659
ery	-660
▁but	-661
cl	-662
▁gro	-663
▁boil	-664
▁surface	-665
ru	-666
atter	-667
ardness	-668
wer	-669
ib	-670
tical	-671
22	-672
▁up	-673
▁ii	-674
omes	-675
𝐸⃗⃗	-676
vern	-677
▁def	-678
▁radi	-679
▁tak	-680
▁hig	-681
cos	-682
arb	-683
▁factors	-684
ex	-685
put	-686
▁gas	-687
oy	-688
▁man	-689
▁propert	-690
uel	-691
▁requ	-692
▁temperature	-693
▁100	-694
▁any	-695
ined	-696
▁Inc	-697
raction	-698
ici	-699
▁measure	-700
ations	-701
ash	-702
▁laser	-703
▁−	-704
▁ox	-705
▁acc	-706
▁redu	-707
2.	-708
▁ob	-709
ational	-710
ms	-711
olum	-712
ample	-713
▁method	-714
ack	-715
▁But	-716
▁term	-717
ydro	-718
lass	-719
▁less	-720
cial	-721
▁first	-722
ffici	-723
▁lead	-724
▁lubric	-725
▁higher	-726
swer	-727
▁flow	-728
▁second	-729
ines	-730
▁vector	-731
▁determ	-732
io	-733
0,000	-734
▁Bank	-735
▁depos	-736
▁present	-737
▁pay	-738
▁oper	-739
ory	-740
▁then	-741
rinci	-742
cent	-743
▁bas	-744
▁into	-745
▁tra	-746
▁some	-747
▁fixed	-748
action	-749
ited	-750
inal	-751
▁gr	-752
…………	-753
▁lo	-754
▁occ	-755
ral	-756
fore	-757
▁sm	-758
▁bot	-759
king	-760
vernment	-761
▁electrons	-762
▁,	-763
ages	-764
▁atom	-765
▁invest	-766
▁condition	-767
▁order	-768
ission	-769
tal	-770
alys	-771
▁"	-772
ors	-773
▁hel	-774
▁ret	-775
ice	-776
▁various	-777
▁organ	-778
▁rise	-779
▁known	-780
▁(1	-781
3)	-782
▁very	-783
▁K	-784
rent	-785
ten	-786
sure	-787
ired	-788
ife	-789
▁med	-790
▁commodity	-791
▁occur	-792
▁import	-793
▁includ	-794
▁electron	-795
▁subst	-796
gineering	-797
▁years	-798
ove	-799
▁×	-800
▁Ca	-801
▁bu	-802
▁z	-803
par	-804
fter	-805
ivid	-806
▁three	-807
ech	-808
▁mak	-809
▁Answer	-810
▁constant	-811
▁ro	-812
pres	-813
ption	-814
▁15	-815
▁count	-816
▁help	-817
ular	-818
ract	-819
▁reg	-820
▁Ask	-821
∇⃗⃗⃗	-822
▁get	-823
ero	-824
▁total	-825
ram	-826
▁waste	-827
▁calcul	-828
alysis	-829
erence	-830
▁following	-831
▁phys	-832
▁sell	-833
),	-834
▁serv	-835
▁comb	-836
▁For	-837
▁depreciation	-838
▁only	-839
▁develop	-840
▁each	-841
les	-842
quid	-843
ident	-844
uch	-845
▁elastic	-846
▁optical	-847
▁7	-848
ail	-849
val	-850
▁resources	-851
ends	-852
pect	-853
.2	-854
▁small	-855
eld	-856
▁field	-857
▁chemical	-858
▁tax	-859
▁cap	-860
▁Re	-861
atur	-862
arbon	-863
▁min	-864
▁Res	-865
ower	-866
▁prof	-867
▁electrom	-868
te	-869
ices	-870
▁Int	-871
ives	-872
▁main	-873
dust	-874
▁pot	-875
▁fiber	-876
ology	-877
rol	-878
▁On	-879
ploy	-880
▁gra	-881
▁long	-882
▁no	-883
▁→	-884
▁caus	-885
▁remain	-886
ered	-887
▁unit	-888
flation	-889
ude	-890
▁20	-891
▁increases	-892
RR	-893
are	-894
▁Ch	-895
osp	-896
reak	-897
▁property	-898
ulation	-899
▁pur	-900
▁fuel	-901
▁cl	-902
▁most	-903
▁Mg	-904
sol	-905
▁life	-906
▁economic	-907
▁Dis	-908
▁important	-909
ability	-910
▁hardness	-911
▁was	-912
nual	-913
ygen	-914
▁expres	-915
reat	-916
2,	-917
rice	-918
▁Cost	-919
▁case	-920
▁end	-921
▁He	-922
▁ang	-923
▁demanded	-924
▁both	-925
cosystem	-926
▁col	-927
20	-928
erve	-929
ized	-930
rease	-931
▁power	-932
▁return	-933
▁government	-934
▁[	-935
▁pat	-936
change	-937
▁Ph	-938
pose	-939
ros	-940
roup	-941
duct	-942
ingle	-943
----	-944
SO	-945
ize	-946
▁asset	-947
▁class	-948
▁app	-949
ull	-950
▁contain	-951
▁9	-952
▁exc	-953
▁rel	-954
acter	-955
▁current	-956
▁prov	-957
cer	-958
ribution	-959
▁cat	-960
▁use	-961
▁large	-962
▁electromagnetic	-963
▁medium	-964
▁𝐸⃗⃗	-965
▁potential	-966
11	-967
uring	-968
ference	-969
ale	-970
▁free	-971
ternal	-972
▁hydro	-973
Cl	-974
ring	-975
▁sl	-976
▁How	-977
	-978
▁direction	-979
▁liquid	-980
ew	-981
▁CO	-982
ues	-983
▁consid	-984
echn	-985
▁required	-986
▁index	-987
▁boiler	-988
ile	-989
ides	-990
▁non	-991
▁employ	-992
100	-993
rite	-994
	-995
▁cre	-996
▁angle	-997
▁grating	-998
one	-999
▁must	-1000
vent	-1001
5)	-1002
itut	-1003
ck	-1004
▁fil	-1005
ubl	-1006
▁ground	-1007
▁materials	-1008
aves	-1009
▁work	-1010
olume	-1011
▁fall	-1012
ays	-1013
▁19	-1014
▁types	-1015
▁above	-1016
▁intensity	-1017
▁hand	-1018
itude	-1019
▁worth	-1020
4)	-1021
▁radiation	-1022
▁Thus	-1023
▁Al	-1024
eg	-1025
▁Find	-1026
ared	-1027
▁ent	-1028
▁reaction	-1029
▁Price	-1030
sed	-1031
▁ris	-1032
▁group	-1033
▁princi	-1034
▁pressure	-1035
ersion	-1036
▁Calcul	-1037
▁elasticity	-1038
ade	-1039
▁av	-1040
▁ear	-1041
ival	-1042
▁cent	-1043
▁altern	-1044
▁12	-1045
ization	-1046
▁2.	-1047
ording	-1048
________	-1049
▁investment	-1050
1.	-1051
hed	-1052
uation	-1053
enef	-1054
▁repres	-1055
▁No	-1056
▁difference	-1057
lu	-1058
▁them	-1059
sh	-1060
▁est	-1061
▁At	-1062
▁Max	-1063
==	-1064
ital	-1065
▁maximum	-1066
▁Elect	-1067
00,000	-1068
▁>	-1069
▁equal	-1070
ode	-1071
rit	-1072
12	-1073
▁Sol	-1074
▁indust	-1075
▁fre	-1076
▁after	-1077
rop	-1078
▁adv	-1079
▁down	-1080
▁lower	-1081
▁cash	-1082
▁Income	-1083
▁output	-1084
▁show	-1085
▁economy	-1086
▁poss	-1087
opulation	-1088
▁analysis	-1089
ght	-1090
▁line	-1091
▁need	-1092
▁well	-1093
▁add	-1094
▁Un	-1095
icro	-1096
de	-1097
ublic	-1098
▁relation	-1099
.0	-1100
cle	-1101
▁sim	-1102
▁diag	-1103
ration	-1104
well	-1105
▁rat	-1106
▁single	-1107
▁Maxwell	-1108
ves	-1109
erse	-1110
aracter	-1111
ivity	-1112
redit	-1113
fer	-1114
reases	-1115
ource	-1116
atural	-1117
▁x	-1118
▁ext	-1119
1,	-1120
even	-1121
istic	-1122
▁disc	-1123
fect	-1124
art	-1125
yl	-1126
AC	-1127
▁.	-1128
gical	-1129
reatment	-1130
▁𝑑	-1131
old	-1132
iii	-1133
▁𝐴	-1134
▁variable	-1135
▁Write	-1136
▁below	-1137
▁frequ	-1138
▁ar	-1139
▁fin	-1140
▁area	-1141
ication	-1142
▁country	-1143
▁Dep	-1144
emand	-1145
ward	-1146
ining	-1147
▁atoms	-1148
▁fig	-1149
15	-1150
ving	-1151
▁remo	-1152
▁minim	-1153
▁pe	-1154
etary	-1155
▁We	-1156
eter	-1157
▁combust	-1158
atic	-1159
▁)	-1160
▁acid	-1161
ish	-1162
▁means	-1163
ically	-1164
▁buy	-1165
▁physical	-1166
ruct	-1167
▁made	-1168
▁emission	-1169
▁Calculate	-1170
▁chang	-1171
ists	-1172
,10	-1173
cing	-1174
▁ampl	-1175
▁sa	-1176
ually	-1177
▁consumer	-1178
▁imp	-1179
▁comple	-1180
▁des	-1181
▁accept	-1182
ron	-1183
▁effici	-1184
▁mass	-1185
▁Na	-1186
▁Law	-1187
▁waves	-1188
▁account	-1189
ries	-1190
▁abs	-1191
▁sit	-1192
▁economics	-1193
▁services	-1194
co	-1195
ension	-1196
▁diagram	-1197
▁ecosystem	-1198
▁By	-1199
ividual	-1200
▁deposits	-1201
lor	-1202
reg	-1203
ick	-1204
rim	-1205
ormal	-1206
▁using	-1207
cal	-1208
itive	-1209
........	-1210
▁excited	-1211
▁banks	-1212
urb	-1213
▁produced	-1214
ping	-1215
▁source	-1216
▁equival	-1217
ances	-1218
▁short	-1219
position	-1220
▁OP	-1221
aving	-1222
▁affect	-1223
not	-1224
▁compound	-1225
hes	-1226
	-1227
right	-1228
𝐻⃗⃗⃗	-1229
▁terms	-1230
▁volume	-1231
ople	-1232
▁sign	-1233
▁Demand	-1234
other	-1235
ination	-1236
▁maxima	-1237
▁position	-1238
▁net	-1239
▁states	-1240
ibri	-1241
ibrium	-1242
▁credit	-1243
ilibrium	-1244
▁been	-1245
▁spect	-1246
▁PW	-1247
▁X	-1248
ixed	-1249
3.	-1250
▁core	-1251
▁Indi	-1252
▁profit	-1253
uman	-1254
▁run	-1255
▁formed	-1256
1)	-1257
itted	-1258
▁poll	-1259
▁depends	-1260
▁sod	-1261
ren	-1262
▁activ	-1263
▁incident	-1264
▁much	-1265
▁who	-1266
▁equilibrium	-1267
ever	-1268
▁individual	-1269
cies	-1270
▁stud	-1271
▁direct	-1272
ia	-1273
▁Wh	-1274
ision	-1275
▁stage	-1276
▁diffraction	-1277
OH	-1278
ator	-1279
▁Po	-1280
▁lim	-1281
ctane	-1282
herent	-1283
▁Acc	-1284
▁ions	-1285
▁appro	-1286
▁∇⃗⃗⃗	-1287
▁occurs	-1288
▁products	-1289
▁Engineering	-1290
▁compon	-1291
▁ste	-1292
▁eas	-1293
▁avail	-1294
ix	-1295
▁does	-1296
▁public	-1297
▁techn	-1298
▁expression	-1299
▁agg	-1300
▁would	-1301
▁general	-1302
▁𝜕𝑡	-1303
▁air	-1304
row	-1305
▁ratio	-1306
▁oxygen	-1307
▁formation	-1308
▁inst	-1309
:-	-1310
▁j	-1311
▁neg	-1312
▁parts	-1313
▁population	-1314
▁theory	-1315
▁Reserve	-1316
▁exchange	-1317
oss	-1318
▁defined	-1319
▁character	-1320
vironmental	-1321
elect	-1322
▁appl	-1323
▁Example	-1324
ince	-1325
ified	-1326
uture	-1327
▁prop	-1328
▁produce	-1329
▁during	-1330
▁interference	-1331
als	-1332
▁benef	-1333
itial	-1334
▁Cont	-1335
▁salts	-1336
▁invol	-1337
▁matter	-1338
AN	-1339
▁Mon	-1340
▁1,	-1341
ross	-1342
ractive	-1343
▁particular	-1344
▁iii	-1345
▁size	-1346
ily	-1347
portion	-1348
az	-1349
▁J	-1350
▁Inflation	-1351
0.	-1352
alth	-1353
▁activities	-1354
pal	-1355
very	-1356
▁alk	-1357
▁speed	-1358
▁organic	-1359
att	-1360
ertain	-1361
ft	-1362
▁cannot	-1363
▁combustion	-1364
▁place	-1365
▁conditions	-1366
OD	-1367
▁cal	-1368
▁mod	-1369
ds	-1370
▁development	-1371
cu	-1372
ulated	-1373
▁supplied	-1374
alance	-1375
▁photon	-1376
	-1377
▁scale	-1378
▁commodities	-1379
vant	-1380
ological	-1381
▁magnetic	-1382
iture	-1383
air	-1384
▁zero	-1385
𝑤𝑡	-1386
▁aggreg	-1387
▁annual	-1388
▁people	-1389
ton	-1390
solved	-1391
ody	-1392
pon	-1393
▁oils	-1394
▁1)	-1395
▁3.	-1396
ases	-1397
bers	-1398
imes	-1399
▁shif	-1400
▁Water	-1401
▁cathod	-1402
▁To	-1403
enditure	-1404
▁shown	-1405
iness	-1406
▁land	-1407
imension	-1408
▁full	-1409
500	-1410
arri	-1411
▁Econom	-1412
▁off	-1413
ocity	-1414
▁negative	-1415
azard	-1416
▁beam	-1417
▁disp	-1418
aces	-1419
▁equivalent	-1420
%,	-1421
reen	-1422
pared	-1423
▁solid	-1424
▁percent	-1425
lo	-1426
imate	-1427
▁aggregate	-1428
▁chain	-1429
▁saf	-1430
▁sum	-1431
▁cy	-1432
eries	-1433
▁India	-1434
▁cell	-1435
IC	-1436
ship	-1437
place	-1438
▁From	-1439
▁generally	-1440
ning	-1441
arginal	-1442
ormation	-1443
▁sul	-1444
▁space	-1445
▁again	-1446
▁leads	-1447
▁find	-1448
bic	-1449
idth	-1450
ER	-1451
▁values	-1452
vantages	-1453
mosp	-1454
▁engine	-1455
▁frequency	-1456
▁2)	-1457
rig	-1458
▁vel	-1459
▁engineering	-1460
▁film	-1461
itute	-1462
▁make	-1463
▁Environmental	-1464
▁transm	-1465
cip	-1466
▁contin	-1467
▁metals	-1468
▁rings	-1469
erg	-1470
▁measures	-1471
▁efficiency	-1472
▁According	-1473
ier	-1474
▁set	-1475
▁mole	-1476
▁compar	-1477
▁new	-1478
ructure	-1479
▁(2	-1480
▁shift	-1481
▁human	-1482
lection	-1483
raw	-1484
▁assum	-1485
▁prepared	-1486
▁Product	-1487
▁div	-1488
round	-1489
▁pass	-1490
▁conver	-1491
▁certain	-1492
▁Depreciation	-1493
ety	-1494
pective	-1495
▁pet	-1496
▁take	-1497
ison	-1498
▁rece	-1499
placement	-1500
▁future	-1501
▁equations	-1502
▁New	-1503
▁along	-1504
▁purch	-1505
▁photons	-1506
▁absor	-1507
▁Am	-1508
▁Pb	-1509
▁possible	-1510
by	-1511
𝐵⃗⃗	-1512
▁Where	-1513
▁while	-1514
▁includes	-1515
▁ele	-1516
NP	-1517
▁expect	-1518
▁200	-1519
▁refractive	-1520
▁soap	-1521
▁cause	-1522
▁density	-1523
water	-1524
▁becomes	-1525
▁velocity	-1526
▁control	-1527
▁environmental	-1528
ales	-1529
▁many	-1530
▁𝐻⃗⃗⃗	-1531
▁electro	-1532
▁figure	-1533
ec	-1534
ox	-1535
▁type	-1536
▁shows	-1537
ruction	-1538
▁commun	-1539
▁relationship	-1540
RE	-1541
▁Ad	-1542
ludge	-1543
tained	-1544
omestic	-1545
▁common	-1546
▁increasing	-1547
ON	-1548
verage	-1549
	-1550
ither	-1551
▁Break	-1552
▁added	-1553
▁width	-1554
▁solution	-1555
aj	-1556
▁Or	-1557
▁available	-1558
▁treatment	-1559
▁50	-1560
istics	-1561
▁pol	-1562
▁pers	-1563
▁those	-1564
▁units	-1565
▁micro	-1566
▁Therefore	-1567
):	-1568
▁(2)	-1569
▁soil	-1570
▁proble	-1571
me	-1572
▁Sh	-1573
otal	-1574
▁proportion	-1575
16	-1576
▁diam	-1577
duction	-1578
▁charg	-1579
▁falls	-1580
▁changes	-1581
▁br	-1582
,?	-1583
rial	-1584
▁loc	-1585
vention	-1586
.,	-1587
ted	-1588
▁Su	-1589
▁real	-1590
▁amplitude	-1591
ently	-1592
itable	-1593
▁State	-1594
	-1595
▁eq	-1596
▁integ	-1597
▁secondary	-1598
▁Act	-1599
▁sound	-1600
▁break	-1601
get	-1602
▁bl	-1603
▁propag	-1604
▁perfect	-1605
fill	-1606
ilar	-1607
▁Gener	-1608
▁positive	-1609
▁heat	-1610
▁ign	-1611
icult	-1612
▁2000	-1613
▁relative	-1614
▁expenditure	-1615
▁Y	-1616
lected	-1617
▁based	-1618
rum	-1619
▁Sp	-1620
raight	-1621
PP	-1622
▁super	-1623
▁batter	-1624
▁example	-1625
iment	-1626
ins	-1627
▁within	-1628
▁principal	-1629
▁𝑒	-1630
▁path	-1631
▁particles	-1632
oint	-1633
▁loss	-1634
40	-1635
ene	-1636
▁costs	-1637
▁takes	-1638
▁represent	-1639
▁being	-1640
▁che	-1641
▁part	-1642
▁were	-1643
ism	-1644
aneous	-1645
atis	-1646
▁even	-1647
▁charge	-1648
▁natural	-1649
▁Hardness	-1650
▁BOD	-1651
▁However	-1652
8)	-1653
▁emitted	-1654
▁determine	-1655
IS	-1656
▁fring	-1657
▁sales	-1658
▁ax	-1659
cipit	-1660
▁capital	-1661
▁precipit	-1662
centration	-1663
▁distribution	-1664
ajor	-1665
▁Pre	-1666
hate	-1667
ercial	-1668
▁gases	-1669
fficient	-1670
▁external	-1671
▁Equ	-1672
▁crit	-1673
reater	-1674
▁25	-1675
uous	-1676
ourse	-1677
▁dissolved	-1678
isms	-1679
▁fore	-1680
▁oxid	-1681
erobic	-1682
▁payments	-1683
uted	-1684
▁IRR	-1685
▁att	-1686
▁compet	-1687
▁consider	-1688
▁increased	-1689
▁Co	-1690
sing	-1691
den	-1692
▁Pl	-1693
ting	-1694
▁10%	-1695
▁mach	-1696
▁phen	-1697
▁react	-1698
▁Market	-1699
▁Diff	-1700
▁monetary	-1701
▁employment	-1702
▁cir	-1703
▁his	-1704
▁lubricants	-1705
osed	-1706
6)	-1707
▁Ag	-1708
▁mg	-1709
ilic	-1710
▁chlor	-1711
▁components	-1712
▁body	-1713
▁start	-1714
▁Factor	-1715
▁cust	-1716
▁balance	-1717
▁subject	-1718
gra	-1719
uls	-1720
▁Ass	-1721
▁rising	-1722
,10,	-1723
ying	-1724
auss	-1725
▁firm	-1726
▁Gauss	-1727
azardous	-1728
of	-1729
ock	-1730
▁Now	-1731
▁deposit	-1732
▁sources	-1733
▁before	-1734
▁depend	-1735
▁deb	-1736
▁graph	-1737
ern	-1738
pton	-1739
▁reas	-1740
umping	-1741
▁projects	-1742
▁consumption	-1743
▁Sc	-1744
▁step	-1745
▁Total	-1746
▁electrical	-1747
▁(1)	-1748
any	-1749
acity	-1750
▁grow	-1751
▁allow	-1752
▁situation	-1753
▁pattern	-1754
▁Per	-1755
▁how	-1756
agement	-1757
▁national	-1758
▁compounds	-1759
▁difficult	-1760
▁temp	-1761
▁Newton	-1762
▁distance	-1763
▁marginal	-1764
▁information	-1765
oid	-1766
tion	-1767
ganic	-1768
▁greater	-1769
Na	-1770
▁Here	-1771
rimary	-1772
▁forms	-1773
▁course	-1774
▁series	-1775
▁…	-1776
▁major	-1777
▁having	-1778
▁decision	-1779
▁4.	-1780
▁Go	-1781
▁earn	-1782
▁food	-1783
▁normal	-1784
EE	-1785
cium	-1786
oelect	-1787
essential	-1788
▁Qu	-1789
▁lab	-1790
aries	-1791
▁removed	-1792
adding	-1793
7)	-1794
ware	-1795
▁sec	-1796
▁Banks	-1797
▁separ	-1798
▁minimum	-1799
)=	-1800
▁spec	-1801
5.	-1802
▁CaCO	-1803
▁(∇⃗⃗⃗	-1804
▁mix	-1805
▁another	-1806
▁species	-1807
▁National	-1808
▁approach	-1809
ynt	-1810
▁Inst	-1811
▁phase	-1812
▁nature	-1813
▁effects	-1814
▁Met	-1815
▁octane	-1816
▁presence	-1817
abl	-1818
▁displacement	-1819
ok	-1820
14	-1821
AS	-1822
ritt	-1823
▁Determ	-1824
▁initial	-1825
▁internal	-1826
▁effective	-1827
3,	-1828
que	-1829
▁considered	-1830
arm	-1831
▁alternative	-1832
▁Fixed	-1833
▁right	-1834
▁straight	-1835
▁𝑘	-1836
atisf	-1837
▁done	-1838
▁Cons	-1839
▁usually	-1840
▁decrease	-1841
▁photoelect	-1842
ata	-1843
𝑖(	-1844
▁pollution	-1845
)2	-1846
▁	-1847
▁lay	-1848
▁four	-1849
▁addition	-1850
▁Compton	-1851
ften	-1852
ality	-1853
▁Comm	-1854
▁mult	-1855
atives	-1856
▁Typ	-1857
irect	-1858
▁axis	-1859
▁caused	-1860
▁sodium	-1861
ires	-1862
▁perm	-1863
▁surfaces	-1864
Rs	-1865
▁disch	-1866
▁service	-1867
gl	-1868
▁10-	-1869
iform	-1870
▁taxes	-1871
▁operation	-1872
HCO	-1873
ises	-1874
ples	-1875
▁Why	-1876
▁Since	-1877
▁Under	-1878
▁open	-1879
energy	-1880
▁points	-1881
imulated	-1882
▁properties	-1883
30	-1884
60	-1885
▁Ar	-1886
▁vol	-1887
▁laws	-1888
ful	-1889
▁custom	-1890
isting	-1891
▁methods	-1892
▁operating	-1893
▁whe	-1894
▁purpose	-1895
iew	-1896
0000	-1897
ough	-1898
▁Fuel	-1899
▁times	-1900
▁concept	-1901
▁ec	-1902
ture	-1903
▁slit	-1904
▁causes	-1905
……………………	-1906
▁integral	-1907
alv	-1908
ush	-1909
▁𝐵⃗⃗	-1910
urther	-1911
▁impro	-1912
▁fe	-1913
roll	-1914
sequ	-1915
	-1916
respon	-1917
▁resultant	-1918
𝑖𝑛	-1919
▁diameter	-1920
	-1921
icy	-1922
▁Poll	-1923
econom	-1924
▁levels	-1925
eful	-1926
iesel	-1927
ipment	-1928
80	-1929
olumn	-1930
▁carbon	-1931
▁suitable	-1932
▁remaining	-1933
▁Sup	-1934
ilities	-1935
ification	-1936
▁16	-1937
astable	-1938
▁back	-1939
▁input	-1940
▁calculate	-1941
________________	-1942
ike	-1943
ner	-1944
read	-1945
▁prob	-1946
▁plane	-1947
▁foreign	-1948
▁essential	-1949
AL	-1950
▁Waste	-1951
▁banking	-1952
▁Interest	-1953
▁rest	-1954
▁steam	-1955
▁thereby	-1956
▁inversion	-1957
edu	-1958
form	-1959
▁prot	-1960
▁upon	-1961
𝑘𝑥	-1962
ian	-1963
▁fac	-1964
▁ray	-1965
▁central	-1966
▁fraction	-1967
▁orig	-1968
▁divid	-1969
▁infin	-1970
▁50,000	-1971
▁excess	-1972
)(	-1973
▁Z	-1974
▁250	-1975
▁Let	-1976
▁hen	-1977
▁obs	-1978
▁moving	-1979
▁rub	-1980
ished	-1981
▁wages	-1982
▁height	-1983
▁sludge	-1984
▁temperatures	-1985
▁represents	-1986
.𝑟	-1987
▁day	-1988
waste	-1989
▁hence	-1990
▁results	-1991
omen	-1992
▁EAC	-1993
▁phenomen	-1994
▁Such	-1995
▁provide	-1996
▁contains	-1997
iner	-1998
▁loans	-1999
▁easily	-2000
▁reactions	-2001
45	-2002
▁Se	-2003
▁eval	-2004
▁basis	-2005
▁groups	-2006
▁length	-2007
▁weight	-2008
▁transfer	-2009
▁Im	-2010
▁eV	-2011
side	-2012
▁Num	-2013
▁vis	-2014
▁decl	-2015
▁black	-2016
▁gives	-2017
cessary	-2018
▁reduce	-2019
VC	-2020
200	-2021
▁every	-2022
25	-2023
▁role	-2024
arrier	-2025
ergence	-2026
▁either	-2027
▁observ	-2028
▁decreases	-2029
▁determined	-2030
▁transition	-2031
iving	-2032
▁pair	-2033
▁resp	-2034
▁helps	-2035
tenance	-2036
▁atmosp	-2037
▁satisf	-2038
▁molecul	-2039
▁Cor	-2040
▁flu	-2041
▁give	-2042
▁among	-2043
▁cycl	-2044
▁Wave	-2045
▁assets	-2046
4,	-2047
▁Å	-2048
▁Energy	-2049
▁customers	-2050
▁dimension	-2051
ont	-2052
▁Cal	-2053
ended	-2054
▁mean	-2055
▁slow	-2056
urities	-2057
▁column	-2058
▁Process	-2059
	-2060
com	-2061
▁Hence	-2062
dule	-2063
▁poly	-2064
hedule	-2065
perture	-2066
ob	-2067
▁Fig	-2068
certain	-2069
▁without	-2070
▁anode	-2071
▁dispers	-2072
▁commercial	-2073
▁comparison	-2074
▁limit	-2075
90	-2076
ty	-2077
▁Net	-2078
▁lubricant	-2079
▁metastable	-2080
▁beh	-2081
▁0.00	-2082
▁Prof	-2083
▁correspon	-2084
.5	-2085
chie	-2086
▁achie	-2087
▁refers	-2088
▁cathode	-2089
ived	-2090
▁adj	-2091
▁Comp	-2092
▁refer	-2093
▁consists	-2094
▁structure	-2095
ateg	-2096
▁Princi	-2097
23	-2098
▁𝑖	-2099
▁𝜆	-2100
▁Ne	-2101
ided	-2102
▁exper	-2103
▁useful	-2104
▁Suppose	-2105
▁θ	-2106
𝑘.𝑟	-2107
▁encl	-2108
▁Hydro	-2109
▁Effect	-2110
▁range	-2111
ula	-2112
▁Me	-2113
omet	-2114
▁car	-2115
▁iss	-2116
▁functions	-2117
▁bi	-2118
▁iv	-2119
erical	-2120
▁basic	-2121
▁GNP	-2122
iding	-2123
▁Plan	-2124
usiness	-2125
▁profits	-2126
▁related	-2127
▁30	-2128
▁Le	-2129
leum	-2130
roleum	-2131
▁alkal	-2132
▁region	-2133
▁greases	-2134
ARR	-2135
aly	-2136
eol	-2137
eria	-2138
▁sin	-2139
▁𝑒𝑖(	-2140
▁dark	-2141
▁content	-2142
▁payment	-2143
AT	-2144
▁cm	-2145
oment	-2146
▁Then	-2147
▁absorb	-2148
▁resist	-2149
▁quality	-2150
▁SO	-2151
ised	-2152
uble	-2153
▁goes	-2154
▁prevent	-2155
▁Rate	-2156
▁uncertain	-2157
▁respective	-2158
day	-2159
,00,000	-2160
omentum	-2161
apor	-2162
cers	-2163
▁local	-2164
▁further	-2165
▁industrial	-2166
equ	-2167
less	-2168
▁schedule	-2169
▁stimulated	-2170
▁cr	-2171
acro	-2172
▁thick	-2173
75	-2174
▁3)	-2175
▁Some	-2176
▁fringes	-2177
+2	-2178
▁cle	-2179
▁Vari	-2180
▁der	-2181
▁pumping	-2182
ress	-2183
▁Its	-2184
▁cos	-2185
asing	-2186
▁makes	-2187
▁reduces	-2188
▁hydrogen	-2189
ior	-2190
𝑤𝑡−	-2191
𝑘.𝑟)	-2192
▁turn	-2193
𝑤𝑡−𝑘.𝑟)	-2194
▁Analysis	-2195
▁cladding	-2196
▁Ox	-2197
▁box	-2198
▁hard	-2199
▁magn	-2200
▁taken	-2201
▁theof	-2202
reasing	-2203
▁contact	-2204
▁capacity	-2205
▁consumers	-2206
▁divergence	-2207
▁aut	-2208
itution	-2209
▁physics	-2210
▁aperture	-2211
sel	-2212
𝑠𝑖𝑛	-2213
▁protect	-2214
▁<	-2215
nel	-2216
sec	-2217
ling	-2218
▁principle	-2219
▁raw	-2220
▁Lubric	-2221
▁complete	-2222
▁countries	-2223
▁phenomenon	-2224
SW	-2225
ink	-2226
▁MSW	-2227
▁establ	-2228
chan	-2229
▁plan	-2230
▁often	-2231
▁Annual	-2232
▁mechan	-2233
▁travel	-2234
ION	-2235
▁Types	-2236
▁estim	-2237
advantages	-2238
▁processes	-2239
▁red	-2240
isture	-2241
2-	-2242
ising	-2243
▁categ	-2244
▁conduct	-2245
soci	-2246
▁flows	-2247
▁associ	-2248
▁discus	-2249
▁equipment	-2250
▁associated	-2251
4.	-2252
3(	-2253
TE	-2254
▁rates	-2255
▁benefit	-2256
▁follows	-2257
▁momentum	-2258
▁continuous	-2259
▁substances	-2260
Bro	-2261
▁Natural	-2262
70	-2263
▁;	-2264
cks	-2265
▁Ob	-2266
rate	-2267
▁(3)	-2268
▁Economics	-2269
▁𝑒𝑖(𝑤𝑡−𝑘.𝑟)	-2270
hib	-2271
▁finan	-2272
▁design	-2273
▁expressed	-2274
ites	-2275
▁soften	-2276
▁battery	-2277
ood	-2278
cosity	-2279
▁rises	-2280
tection	-2281
▁against	-2282
▁mixture	-2283
▁coherent	-2284
▁organisms	-2285
▁name	-2286
▁inputs	-2287
ochemical	-2288
▁technology	-2289
▁√	-2290
▁Gra	-2291
50,000	-2292
▁influ	-2293
▁average	-2294
▁wastewater	-2295
des	-2296
pid	-2297
aust	-2298
imin	-2299
▁rev	-2300
▁growth	-2301
▁Propert	-2302
▁Determine	-2303
riv	-2304
▁ut	-2305
▁eng	-2306
▁reco	-2307
rivate	-2308
▁Silic	-2309
por	-2310
▁study	-2311
▁living	-2312
▁quantum	-2313
▁uniform	-2314
▁alternatives	-2315
(0	-2316
ps	-2317
ute	-2318
glie	-2319
▁lime	-2320
▁salt	-2321
▁diesel	-2322
▁company	-2323
7,	-2324
▁Show	-2325
▁tend	-2326
ection	-2327
idence	-2328
▁obtained	-2329
otion	-2330
▁stand	-2331
▁ann	-2332
venue	-2333
▁buil	-2334
▁side	-2335
ishing	-2336
ulsion	-2337
▁safety	-2338
▁systems	-2339
▁II	-2340
▁500	-2341
argin	-2342
▁exist	-2343
▁hydroc	-2344
▁disturb	-2345
▁λ	-2346
▁𝑛	-2347
cern	-2348
▁concern	-2349
▁working	-2350
▁chlorine	-2351
▁necessary	-2352
aced	-2353
wards	-2354
▁object	-2355
▁problem	-2356
pro	-2357
oynt	-2358
▁dev	-2359
dient	-2360
orific	-2361
▁Poynt	-2362
▁include	-2363
▁Poynting	-2364
▁signific	-2365
▁concentration	-2366
▁photoelectric	-2367
▁whole	-2368
▁regard	-2369
▁𝐴2	-2370
ceed	-2371
orem	-2372
▁det	-2373
itives	-2374
▁policy	-2375
▁respons	-2376
▁Ecosystem	-2377
qq	-2378
▁Spe	-2379
▁dil	-2380
▁suc	-2381
▁data	-2382
▁fund	-2383
▁Phase	-2384
▁producers	-2385
▁𝜙	-2386
ord	-2387
▁Ec	-2388
▁Em	-2389
road	-2390
▁Man	-2391
stand	-2392
▁drop	-2393
▁lens	-2394
▁Sim	-2395
▁substitute	-2396
−=	-2397
▁𝟐	-2398
igen	-2399
udit	-2400
▁your	-2401
▁discharge	-2402
▁Disadvantages	-2403
▁Ac	-2404
▁nm	-2405
▁Fuels	-2406
▁specific	-2407
▁courseware	-2408
EM	-2409
alf	-2410
▁5.	-2411
▁Fe	-2412
back	-2413
clus	-2414
▁rapid	-2415
oline	-2416
▁found	-2417
▁contam	-2418
▁engines	-2419
▁business	-2420
𝑗̂	-2421
▁prom	-2422
▁reason	-2423
▁causing	-2424
▁probability	-2425
▁Tem	-2426
▁mem	-2427
epend	-2428
▁larg	-2429
▁formula	-2430
▁containing	-2431
▁Two	-2432
anent	-2433
▁loan	-2434
▁vary	-2435
▁trade	-2436
,.	-2437
otic	-2438
erent	-2439
▁whose	-2440
Broglie	-2441
▁communication	-2442
2+	-2443
ES	-2444
𝑐𝑜	-2445
▁FW	-2446
𝑐𝑜𝑠	-2447
ders	-2448
ques	-2449
▁buyers	-2450
▁calculated	-2451
▁classified	-2452
oring	-2453
▁Trans	-2454
▁enter	-2455
▁world	-2456
▁benefits	-2457
▁petroleum	-2458
▁lubricating	-2459
▁characteristics	-2460
95	-2461
NO	-2462
NT	-2463
roph	-2464
▁Quant	-2465
▁Generally	-2466
▁according	-2467
▁move	-2468
▁wide	-2469
▁Laser	-2470
inflation	-2471
▁Increase	-2472
posal	-2473
▁bran	-2474
▁left	-2475
▁After	-2476
▁selling	-2477
▁spectrum	-2478
▁producing	-2479
▁maintenance	-2480
▁transmission	-2481
▁𝐽	-2482
▁Sub	-2483
▁load	-2484
▁safe	-2485
▁boiling	-2486
▁observed	-2487
%)	-2488
tr	-2489
uf	-2490
▁dam	-2491
orage	-2492
ufact	-2493
▁Gross	-2494
▁Planck	-2495
▁proper	-2496
▁special	-2497
IA	-2498
the	-2499
▁nps	-2500
▁acts	-2501
estion	-2502
▁Techn	-2503
▁measured	-2504
▁way	-2505
hibit	-2506
posed	-2507
▁High	-2508
▁soda	-2509
▁compared	-2510
▁ke	-2511
rect	-2512
ural	-2513
▁Non	-2514
▁cool	-2515
▁wast	-2516
▁experiment	-2517
▁propagation	-2518
▁agent	-2519
organic	-2520
▁create	-2521
▁Silicon	-2522
▁calcium	-2523
efficient	-2524
▁quantities	-2525
▁bor	-2526
▁hold	-2527
ricult	-2528
▁areas	-2529
▁spectra	-2530
▁hazardous	-2531
."	-2532
QQ	-2533
▁ψ	-2534
	-2535
▁150	-2536
rical	-2537
▁table	-2538
▁seller	-2539
▁classical	-2540
▁therefore	-2541
rac	-2542
	-2543
▁spont	-2544
racking	-2545
▁larger	-2546
▁sample	-2547
▁sellers	-2548
▁spontaneous	-2549
rm	-2550
▁Oil	-2551
▁Sch	-2552
tific	-2553
tificial	-2554
▁reflect	-2555
▁chemicals	-2556
18	-2557
Ca	-2558
▁/	-2559
▁OF	-2560
like	-2561
▁tre	-2562
▁debt	-2563
▁heav	-2564
▁Assum	-2565
▁ident	-2566
▁Method	-2567
▁respectively	-2568
hold	-2569
▁sett	-2570
riction	-2571
▁wealth	-2572
▁adverse	-2573
▁infinite	-2574
ler	-2575
▁few	-2576
▁reserv	-2577
--------	-2578
▁Pollution	-2579
▁Cy	-2580
iven	-2581
uity	-2582
ories	-2583
▁decom	-2584
▁extent	-2585
▁controll	-2586
▁enclosed	-2587
▁industry	-2588
▁rain	-2589
ritten	-2590
▁employed	-2591
ath	-2592
inity	-2593
▁lose	-2594
▁wants	-2595
▁bright	-2596
3)2	-2597
izes	-2598
▁gets	-2599
amples	-2600
ention	-2601
▁Micro	-2602
▁lines	-2603
▁Factors	-2604
▁distill	-2605
▁manufact	-2606
push	-2607
utri	-2608
▁Phys	-2609
▁dest	-2610
atings	-2611
▁alloc	-2612
▁become	-2613
▁plants	-2614
reciable	-2615
▁financial	-2616
▁ev	-2617
phur	-2618
⃗⃗⃗⃗	-2619
▁prog	-2620
▁regul	-2621
▁affects	-2622
▁Electron	-2623
▁incidence	-2624
▁ion	-2625
hemat	-2626
▁harm	-2627
▁rays	-2628
utants	-2629
▁layer	-2630
▁Carbon	-2631
▁involves	-2632
▁𝑘̂	-2633
rous	-2634
▁why	-2635
▁Laws	-2636
▁petrol	-2637
▁subjects	-2638
▁perfectly	-2639
▁lubrication	-2640
▁ml	-2641
chang	-2642
ittle	-2643
▁zeol	-2644
▁achieved	-2645
▁Production	-2646
▁atmosphere	-2647
face	-2648
gree	-2649
▁Par	-2650
▁now	-2651
▁circu	-2652
▁raise	-2653
inition	-2654
2(	-2655
▁5)	-2656
▁sup	-2657
unity	-2658
▁Sales	-2659
▁adjust	-2660
▁making	-2661
▁collect	-2662
▁Chemical	-2663
▁oxidation	-2664
PW	-2665
rif	-2666
quif	-2667
▁0.5	-2668
▁ring	-2669
▁glass	-2670
▁words	-2671
▁reduced	-2672
▁gradient	-2673
▁involved	-2674
▁disturbance	-2675
▁18	-2676
▁anod	-2677
▁bott	-2678
▁fast	-2679
▁𝐸⃗⃗)	-2680
▁action	-2681
▁element	-2682
▁primary	-2683
▁Domestic	-2684
▁superposition	-2685
ror	-2686
alvan	-2687
etane	-2688
▁radius	-2689
▁independ	-2690
▁reducing	-2691
mg	-2692
▁400	-2693
▁indic	-2694
▁Profit	-2695
▁health	-2696
▁compres	-2697
▁directly	-2698
▁acceptance	-2699
BR	-2700
	-2701
tak	-2702
▁Phot	-2703
▁gain	-2704
▁30,000	-2705
▁boilers	-2706
▁expected	-2707
▁gasoline	-2708
▁percentage	-2709
".	-2710
mm	-2711
apse	-2712
▁mis	-2713
▁barrier	-2714
▁removal	-2715
▁domestic	-2716
.8	-2717
ipt	-2718
▁60	-2719
▁Bo	-2720
ased	-2721
sive	-2722
alyst	-2723
▁adop	-2724
▁bound	-2725
▁describ	-2726
▁require	-2727
▁emulsion	-2728
▁additives	-2729
rons	-2730
▁Main	-2731
▁simpl	-2732
osphate	-2733
▁minima	-2734
▁economies	-2735
▁stability	-2736
▁Advantages	-2737
ropic	-2738
▁bill	-2739
▁earth	-2740
nn	-2741
ope	-2742
oth	-2743
▁𝑤𝑡	-2744
▁Land	-2745
▁expl	-2746
▁Using	-2747
▁Develop	-2748
▁Variable	-2749
▁contents	-2750
▁substance	-2751
▁Government	-2752
▁Bi	-2753
▁Mo	-2754
▁ow	-2755
cycl	-2756
▁Cur	-2757
▁MARR	-2758
▁multi	-2759
▁written	-2760
NN	-2761
	-2762
---	-2763
10)	-2764
ways	-2765
▁Gas	-2766
▁ill	-2767
idity	-2768
▁play	-2769
gether	-2770
▁Suppl	-2771
▁question	-2772
▁together	-2773
▁estimated	-2774
33	-2775
▁burn	-2776
▁comes	-2777
▁store	-2778
▁Institute	-2779
▁differential	-2780
▁✓	-2781
▁Cap	-2782
▁too	-2783
icarbon	-2784
▁conserv	-2785
▁calculation	-2786
94	-2787
▁$	-2788
800	-2789
▁𝑗̂	-2790
▁One	-2791
⃗⃗⃗⃗⃗	-2792
▁feed	-2793
avings	-2794
▁cathodic	-2795
▁viscosity	-2796
In	-2797
ee	-2798
ss	-2799
▁All	-2800
athemat	-2801
.7	-2802
▁cop	-2803
▁produces	-2804
▁variation	-2805
og	-2806
led	-2807
▁read	-2808
▁plant	-2809
▁since	-2810
▁Project	-2811
oura	-2812
ucle	-2813
▁Pres	-2814
▁firms	-2815
▁Oxygen	-2816
▁reduction	-2817
umin	-2818
▁sem	-2819
▁optic	-2820
▁undertak	-2821
86	-2822
▁ir	-2823
▁carry	-2824
alvanic	-2825
▁similar	-2826
▁provides	-2827
▁Der	-2828
▁imm	-2829
hesis	-2830
rates	-2831
▁conn	-2832
▁Inter	-2833
romatic	-2834
ynthesis	-2835
▁purchase	-2836
▁established	-2837
=+	-2838
go	-2839
▁NPW	-2840
▁flux	-2841
▁iron	-2842
▁Solid	-2843
▁saving	-2844
▁divided	-2845
▁perform	-2846
▁today	-2847
▁smaller	-2848
▁construction	-2849
9)	-2850
och	-2851
graph	-2852
▁Macro	-2853
▁fuels	-2854
▁resid	-2855
▁sells	-2856
▁things	-2857
ne	-2858
ify	-2859
rmal	-2860
▁Use	-2861
ching	-2862
▁port	-2863
▁want	-2864
angible	-2865
▁Indust	-2866
▁success	-2867
▁friction	-2868
▁moisture	-2869
1(	-2870
▁±	-2871
eyn	-2872
2222	-2873
ield	-2874
▁Sod	-2875
▁rep	-2876
eynes	-2877
▁volt	-2878
▁heavy	-2879
▁model	-2880
▁Keynes	-2881
▁person	-2882
▁catalyst	-2883
DP	-2884
▁conf	-2885
rosion	-2886
ributed	-2887
▁highly	-2888
▁uncertainty	-2889
▁∇	-2890
▁80	-2891
2𝐸⃗⃗	-2892
▁prev	-2893
▁provided	-2894
▁competition	-2895
QT	-2896
▁0,	-2897
▁Cat	-2898
▁Mar	-2899
▁sus	-2900
ately	-2901
▁near	-2902
▁Control	-2903
▁substitut	-2904
▁industries	-2905
▁protection	-2906
34	-2907
ouse	-2908
▁our	-2909
▁1000	-2910
▁best	-2911
▁poor	-2912
▁Another	-2913
▁limited	-2914
▁theorem	-2915
▁landfill	-2916
▁Corrosion	-2917
64	-2918
	-2919
	-2920
	-2921
	-2922
▁put	-2923
5,000	-2924
	-2925
soluble	-2926
▁adding	-2927
economics	-2928
istribution	-2929
▁Properties	-2930
▁µ	-2931
bre	-2932
ules	-2933
▁Cash	-2934
▁Obtain	-2935
▁select	-2936
ets	-2937
lel	-2938
ote	-2939
▁od	-2940
▁sw	-2941
allel	-2942
poses	-2943
veral	-2944
▁charged	-2945
▁several	-2946
▁producer	-2947
1000	-2948
▁lit	-2949
heric	-2950
quifer	-2951
▁avoid	-2952
▁oxide	-2953
▁plates	-2954
▁𝑎	-2955
▁1.5	-2956
▁curren	-2957
▁prepar	-2958
▁correct	-2959
▁private	-2960
▁Monetary	-2961
▁ine	-2962
uations	-2963
▁Initial	-2964
▁inhibit	-2965
▁parallel	-2966
▁inelastic	-2967
▁%	-2968
vage	-2969
▁Ret	-2970
ivers	-2971
▁Number	-2972
▁modern	-2973
▁forming	-2974
▁salvage	-2975
93	-2976
RD	-2977
SP	-2978
▁∮	-2979
▁𝐷	-2980
rich	-2981
▁Tax	-2982
▁plate	-2983
eration	-2984
▁varies	-2985
▁defines	-2986
▁machine	-2987
▁rapidly	-2988
▁numerical	-2989
▁4)	-2990
▁Cr	-2991
pped	-2992
ures	-2993
▁cho	-2994
▁keep	-2995
▁ruby	-2996
▁swit	-2997
rength	-2998
▁cycle	-2999
▁techni	-3000
ita	-3001
▁beg	-3002
▁vac	-3003
▁mixed	-3004
▁Return	-3005
▁Similar	-3006
▁improve	-3007
▁elements	-3008
▁……………………	-3009
▁Diffraction	-3010
inc	-3011
▁pa	-3012
▁Rem	-3013
ected	-3014
ulsif	-3015
▁obtain	-3016
▁accounts	-3017
.)	-3018
onom	-3019
pend	-3020
reme	-3021
▁Sul	-3022
point	-3023
icular	-3024
▁spread	-3025
▁criteria	-3026
pendicular	-3027
𝜙1	-3028
ert	-3029
▁gu	-3030
▁valu	-3031
▁workers	-3032
▁problems	-3033
▁explained	-3034
▁meet	-3035
▁labor	-3036
𝑠⃗⃗⃗⃗⃗	-3037
▁simple	-3038
▁requires	-3039
The	-3040
▁wage	-3041
▁Noise	-3042
▁little	-3043
sequently	-3044
▁ignition	-3045
▁declining	-3046
▁coefficient	-3047
CL	-3048
gn	-3049
400	-3050
iss	-3051
▁Each	-3052
▁needed	-3053
ometimes	-3054
▁supplies	-3055
▁calorific	-3056
▁component	-3057
▁management	-3058
amm	-3059
fur	-3060
rated	-3061
▁Eval	-3062
ending	-3063
▁Cycle	-3064
▁Money	-3065
▁force	-3066
▁included	-3067
▁electroly	-3068
▁∆	-3069
full	-3070
▁EIS	-3071
▁fas	-3072
fully	-3073
▁util	-3074
▁steps	-3075
▁faster	-3076
▁towards	-3077
ppm	-3078
imal	-3079
hetic	-3080
▁Supply	-3081
▁Condition	-3082
▁Similarly	-3083
▁application	-3084
'.	-3085
87	-3086
cm	-3087
uum	-3088
1212	-3089
alar	-3090
draw	-3091
arily	-3092
esium	-3093
▁issue	-3094
▁0.003(	-3095
▁inters	-3096
▁scalar	-3097
▁possess	-3098
▁savings	-3099
▁magnitude	-3100
▁categories	-3101
tt	-3102
▁μ	-3103
rosc	-3104
▁Mod	-3105
▁stat	-3106
▁nutri	-3107
▁Theory	-3108
▁additional	-3109
▁𝐼	-3110
roding	-3111
▁beings	-3112
▁fields	-3113
▁remains	-3114
▁reserves	-3115
▁Schroding	-3116
▁developed	-3117
▁reflected	-3118
▁Technology	-3119
,15	-3120
▁DO	-3121
▁tends	-3122
▁compos	-3123
▁longer	-3124
▁Exchange	-3125
geochemical	-3126
▁decreasing	-3127
▁determining	-3128
▁productivity	-3129
)/	-3130
xt	-3131
▁tr	-3132
irst	-3133
▁Bas	-3134
aking	-3135
▁sold	-3136
▁thus	-3137
▁turb	-3138
arbons	-3139
▁fibre	-3140
▁borrow	-3141
col	-3142
use	-3143
ticip	-3144
▁days	-3145
▁System	-3146
▁agents	-3147
▁anticip	-3148
▁reserve	-3149
▁generated	-3150
▁electronic	-3151
ext	-3152
▁IT	-3153
====	-3154
SION	-3155
anes	-3156
▁EIA	-3157
▁begin	-3158
▁origin	-3159
▁prefer	-3160
▁Average	-3161
▁passing	-3162
▁agricult	-3163
▁bicarbon	-3164
iminishing	-3165
▁softening	-3166
app	-3167
ole	-3168
▁Li	-3169
ense	-3170
▁own	-3171
ylene	-3172
▁stop	-3173
▁around	-3174
▁ecological	-3175
▁Development	-3176
-2	-3177
ipts	-3178
▁Val	-3179
▁MgCl	-3180
▁soci	-3181
▁view	-3182
▁final	-3183
▁influence	-3184
000(	-3185
▁del	-3186
ulate	-3187
▁Time	-3188
▁coll	-3189
aerobic	-3190
▁complex	-3191
▁Principle	-3192
▁absorption	-3193
▁perpendicular	-3194
▁she	-3195
enses	-3196
▁Cent	-3197
▁Consid	-3198
▁Direct	-3199
▁monoch	-3200
▁Perfect	-3201
▁corrosive	-3202
▁transport	-3203
▁independent	-3204
▁corresponding	-3205
▁monochromatic	-3206
,8	-3207
FC	-3208
off	-3209
▁1/	-3210
haust	-3211
▁head	-3212
ediment	-3213
▁cycles	-3214
dimension	-3215
▁including	-3216
▁pollutants	-3217
▁resistance	-3218
▁interaction	-3219
ask	-3220
▁task	-3221
clusive	-3222
▁Charge	-3223
▁Derive	-3224
▁Margin	-3225
▁exchang	-3226
abil	-3227
ards	-3228
▁Wor	-3229
▁sug	-3230
aming	-3231
▁semi	-3232
▁10,000	-3233
▁closed	-3234
eduction	-3235
ynthetic	-3236
▁Special	-3237
▁amounts	-3238
▁revenue	-3239
▁undergo	-3240
▁compression	-3241
	-3242
▁tun	-3243
ather	-3244
▁Perm	-3245
▁Value	-3246
▁raises	-3247
▁wastes	-3248
▁dispersed	-3249
▁intersect	-3250
▁emb	-3251
▁say	-3252
▁5000	-3253
▁Food	-3254
▁rent	-3255
inetic	-3256
▁always	-3257
▁contamin	-3258
28	-3259
35	-3260
xx	-3261
ird	-3262
wor	-3263
year	-3264
▁(5)	-3265
▁nit	-3266
enefit	-3267
▁sched	-3268
ormally	-3269
tration	-3270
▁placed	-3271
▁recycl	-3272
▁regarding	-3273
▁dispersion	-3274
.3	-3275
▁q	-3276
	-3277
	-3278
sid	-3279
ables	-3280
iscal	-3281
▁loop	-3282
▁scar	-3283
▁members	-3284
▁definition	-3285
▁represented	-3286
CV	-3287
▁Reg	-3288
aches	-3289
ribut	-3290
▁half	-3291
▁joint	-3292
osphere	-3293
▁actual	-3294
▁inside	-3295
▁mainly	-3296
▁charges	-3297
▁strength	-3298
▁molecular	-3299
..(	-3300
▁te	-3301
ious	-3302
▁rup	-3303
4,000	-3304
▁happ	-3305
▁rele	-3306
▁behav	-3307
▁fibers	-3308
▁Ecology	-3309
▁circuit	-3310
▁securities	-3311
iogeochemical	-3312
▁𝜇	-3313
▁NO	-3314
cule	-3315
▁rad	-3316
▁rational	-3317
▁Management	-3318
▁evaluation	-3319
▁understand	-3320
▁𝜕𝑥	-3321
,15,	-3322
▁More	-3323
▁40,000	-3324
▁trapped	-3325
CH	-3326
bi	-3327
▁90	-3328
▁(4)	-3329
pects	-3330
▁Scal	-3331
▁mode	-3332
version	-3333
▁tropic	-3334
▁alkaline	-3335
for	-3336
▁sect	-3337
▁steel	-3338
rinking	-3339
▁sulfur	-3340
▁Primary	-3341
▁devices	-3342
.4	-3343
▁kg	-3344
cill	-3345
▁Alk	-3346
▁enc	-3347
Waste	-3348
▁cryst	-3349
▁vacuum	-3350
▁finding	-3351
▁voltage	-3352
ND	-3353
𝑖̂	-3354
itu	-3355
▁os	-3356
▁uses	-3357
lement	-3358
▁branc	-3359
▁eigen	-3360
posable	-3361
▁positions	-3362
.15	-3363
anj	-3364
cur	-3365
▁40	-3366
inim	-3367
ircu	-3368
inary	-3369
▁ways	-3370
ansion	-3371
▁Circu	-3372
▁audit	-3373
▁anodic	-3374
▁unions	-3375
▁Measure	-3376
▁incomes	-3377
▁whether	-3378
▁𝑑𝑠⃗⃗⃗⃗⃗	-3379
▁Economic	-3380
▁Hazardous	-3381
AG	-3382
,7,	-3383
▁0.0	-3384
▁Fil	-3385
▁GDP	-3386
avity	-3387
▁entire	-3388
▁motion	-3389
yn	-3390
way	-3391
▁Bef	-3392
▁⃗⃗⃗	-3393
▁bear	-3394
rought	-3395
ximate	-3396
▁nucle	-3397
▁Before	-3398
▁bacter	-3399
▁degree	-3400
▁Central	-3401
▁concerned	-3402
▁molecules	-3403
▁responsible	-3404
En	-3405
ded	-3406
dle	-3407
ead	-3408
▁Cl	-3409
duced	-3410
iddle	-3411
▁Appl	-3412
▁Compar	-3413
▁grease	-3414
▁rating	-3415
treatment	-3416
▁coatings	-3417
▁referred	-3418
▁DD	-3419
quare	-3420
▁advan	-3421
▁beams	-3422
▁carri	-3423
▁expand	-3424
▁ability	-3425
▁inhibitors	-3426
2.3	-3427
ira	-3428
ream	-3429
▁coal	-3430
▁next	-3431
▁Liquid	-3432
▁appear	-3433
▁applic	-3434
iversity	-3435
▁thickness	-3436
▁Population	-3437
▁combination	-3438
▁dry	-3439
oherent	-3440
▁Atmosp	-3441
▁leading	-3442
▁Solution	-3443
▁utilized	-3444
▁generation	-3445
▁	-3446
▁(0.	-3447
▁Biod	-3448
▁Sound	-3449
▁sides	-3450
▁vapor	-3451
▁Resins	-3452
▁opport	-3453
▁convert	-3454
▁withdraw	-3455
NG	-3456
ydra	-3457
▁Che	-3458
etime	-3459
irable	-3460
▁clean	-3461
▁undes	-3462
▁labour	-3463
▁hydrocarbons	-3464
kT	-3465
,10)	-3466
icit	-3467
lets	-3468
yper	-3469
▁watt	-3470
▁upward	-3471
▁molecule	-3472
▁described	-3473
yperinflation	-3474
bur	-3475
rete	-3476
rors	-3477
ticle	-3478
▁CaCl	-3479
elling	-3480
encies	-3481
▁remove	-3482
▁aquifer	-3483
49	-3484
𝐴1	-3485
▁5.1	-3486
stain	-3487
▁Also	-3488
▁draw	-3489
▁easy	-3490
▁plas	-3491
▁thin	-3492
▁weak	-3493
ptions	-3494
▁close	-3495
▁damage	-3496
▁creates	-3497
▁inverse	-3498
▁sustain	-3499
▁facilities	-3500
▁relatively	-3501
	-3502
ges	-3503
ond	-3504
▁2,	-3505
▁Au	-3506
▁far	-3507
▁five	-3508
▁test	-3509
ecause	-3510
▁Consum	-3511
▁Second	-3512
▁aerobic	-3513
▁Cracking	-3514
▁receipts	-3515
▁precipitate	-3516
26	-3517
dB	-3518
10%	-3519
ann	-3520
mon	-3521
▁ant	-3522
▁hol	-3523
▁NaOH	-3524
▁site	-3525
▁assess	-3526
▁comput	-3527
▁signal	-3528
▁emulsif	-3529
MC	-3530
lim	-3531
▁5%	-3532
▁FO	-3533
▁bon	-3534
▁decay	-3535
▁miner	-3536
▁notes	-3537
▁desired	-3538
▁developing	-3539
▁controlling	-3540
edi	-3541
▁fl	-3542
▁Aut	-3543
▁Due	-3544
▁flo	-3545
▁foc	-3546
▁1200	-3547
▁MgSO	-3548
▁fail	-3549
▁Three	-3550
▁schem	-3551
develop	-3552
▁20,000	-3553
▁manner	-3554
▁Elastic	-3555
00.	-3556
UBR	-3557
mtr	-3558
▁Op	-3559
▁SS	-3560
▁𝜕𝑧	-3561
atio	-3562
ogen	-3563
▁PbO	-3564
UBRIC	-3565
▁book	-3566
alytic	-3567
▁LUBRIC	-3568
▁Scales	-3569
▁Organic	-3570
▁assumed	-3571
▁changing	-3572
▁Sometimes	-3573
▁exclusive	-3574
▁consisting	-3575
▁composition	-3576
▁requirements	-3577
kg	-3578
uate	-3579
▁Est	-3580
▁month	-3581
▁Normal	-3582
▁chains	-3583
▁stored	-3584
▁annuity	-3585
▁sliding	-3586
▁studies	-3587
▁building	-3588
▁drinking	-3589
▁original	-3590
)?	-3591
Fe	-3592
xy	-3593
−−	-3594
▁𝟏	-3595
10-	-3596
ENT	-3597
▁oq	-3598
▁Dry	-3599
organ	-3600
▁seen	-3601
▁monit	-3602
▁stick	-3603
▁ecology	-3604
▁concepts	-3605
▁Permanent	-3606
▁inorganic	-3607
24	-3608
RO	-3609
agul	-3610
icip	-3611
pere	-3612
comes	-3613
inist	-3614
▁soft	-3615
▁chrom	-3616
▁∇⃗⃗⃗.	-3617
utually	-3618
▁oscill	-3619
▁opportunity	-3620
▁conductivity	-3621
▁7.	-3622
self	-3623
▁nar	-3624
usion	-3625
▁curl	-3626
▁gold	-3627
▁wind	-3628
ticles	-3629
▁Const	-3630
▁First	-3631
▁colour	-3632
▁itself	-3633
▁linear	-3634
▁narrow	-3635
▁Calcium	-3636
▁brought	-3637
▁payback	-3638
▁bacteria	-3639
▁discount	-3640
▁downward	-3641
▁maintain	-3642
▁discussed	-3643
▁expansion	-3644
▁preferred	-3645
▁institution	-3646
▁inflationary	-3647
4-	-3648
▁(0	-3649
▁gm	-3650
oses	-3651
wise	-3652
▁don	-3653
▁hot	-3654
▁pip	-3655
acrif	-3656
▁gross	-3657
plement	-3658
▁mostly	-3659
▁Because	-3660
▁reasons	-3661
▁currency	-3662
▁wavelets	-3663
▁connected	-3664
▁efficient	-3665
▁otherwise	-3666
▁ecosystems	-3667
▁Macroeconomics	-3668
PO	-3669
oys	-3670
itud	-3671
rams	-3672
▁PAN	-3673
ctors	-3674
▁needs	-3675
ifetime	-3676
▁square	-3677
▁batteries	-3678
▁accounting	-3679
▁competitive	-3680
dt	-3681
2.4	-3682
▁Ind	-3683
▁cyl	-3684
▁old	-3685
,000)	-3686
icial	-3687
▁arrow	-3688
itation	-3689
▁Proble	-3690
▁embritt	-3691
▁exhaust	-3692
▁embrittlement	-3693
𝐸0	-3694
oxy	-3695
yram	-3696
imode	-3697
yramid	-3698
▁Content	-3699
▁classes	-3700
▁diluted	-3701
▁students	-3702
▁terminal	-3703
▁Schrodinger	-3704
63	-3705
ule	-3706
▁800	-3707
▁Exp	-3708
escri	-3709
▁alone	-3710
▁inciner	-3711
17	-3712
2%	-3713
55	-3714
ube	-3715
(0.1	-3716
TETE	-3717
▁Dec	-3718
eters	-3719
▁tube	-3720
▁moves	-3721
sequent	-3722
▁Sodium	-3723
▁alumin	-3724
▁proced	-3725
▁tunnel	-3726
function	-3727
▁derived	-3728
▁satisfy	-3729
▁subsequent	-3730
HS	-3731
Ne	-3732
▁Bl	-3733
▁big	-3734
▁top	-3735
agnet	-3736
▁rich	-3737
▁text	-3738
▁layers	-3739
opulated	-3740
pressure	-3741
▁Electro	-3742
▁kinetic	-3743
▁society	-3744
▁Quantity	-3745
▁Character	-3746
▁nutrients	-3747
▁significance	-3748
▁hyperinflation	-3749
%.	-3750
ANT	-3751
▁ri	-3752
▁𝜕𝑦	-3753
▁Air	-3754
▁mir	-3755
isions	-3756
otroph	-3757
quatic	-3758
▁Green	-3759
▁acids	-3760
▁cases	-3761
▁except	-3762
▁readily	-3763
▁Physical	-3764
▁Temperature	-3765
▁particularly	-3766
be	-3767
………	-3768
▁Us	-3769
▁fav	-3770
▁fact	-3771
▁Subst	-3772
▁rupee	-3773
▁thing	-3774
▁1,00,000	-3775
▁affected	-3776
▁controls	-3777
▁disposal	-3778
▁depending	-3779
▁mechanical	-3780
oC	-3781
AVC	-3782
let	-3783
▁6000	-3784
▁Draw	-3785
▁wall	-3786
▁𝐵⃗⃗)	-3787
selves	-3788
▁General	-3789
▁Assuming	-3790
▁normally	-3791
▁Structure	-3792
▁functional	-3793
▁themselves	-3794
=1	-3795
	-3796
▁Sur	-3797
▁aim	-3798
inder	-3799
▁	-3800
▁Effects	-3801
▁numbers	-3802
▁returns	-3803
▁mutually	-3804
▁sufficient	-3805
▁3000	-3806
▁Disc	-3807
▁With	-3808
esides	-3809
▁intro	-3810
▁noise	-3811
▁stock	-3812
▁centre	-3813
▁solids	-3814
▁Function	-3815
▁adversely	-3816
▁affecting	-3817
▁dimensional	-3818
▁conservation	-3819
▁contribution	-3820
vex	-3821
▁Ab	-3822
▁er	-3823
▁ult	-3824
▁Fore	-3825
▁fine	-3826
cience	-3827
ograph	-3828
▁analy	-3829
▁Ground	-3830
▁Screen	-3831
▁operator	-3832
▁sulfuric	-3833
▁Elasticity	-3834
▁significant	-3835
68	-3836
AB	-3837
qpp	-3838
▁OY	-3839
(100	-3840
▁0.2	-3841
▁You	-3842
▁mob	-3843
▁str	-3844
▁Remo	-3845
▁Marsh	-3846
▁Spect	-3847
▁Sludge	-3848
▁answer	-3849
▁phases	-3850
▁screen	-3851
▁0.003($	-3852
▁Capital	-3853
▁applied	-3854
developed	-3855
▁machines	-3856
▁residual	-3857
dimensional	-3858
▁preference	-3859
▁situations	-3860
▁availability	-3861
AW	-3862
▁Out	-3863
atory	-3864
▁here	-3865
▁Which	-3866
▁deals	-3867
▁scatt	-3868
▁assume	-3869
▁impact	-3870
▁extreme	-3871
▁separate	-3872
▁compounded	-3873
13	-3874
77	-3875
82	-3876
kd	-3877
	-3878
▁=?	-3879
emic	-3880
gest	-3881
hates	-3882
▁Alkal	-3883
▁exact	-3884
▁Ampere	-3885
ditional	-3886
rimarily	-3887
▁Present	-3888
▁treated	-3889
▁Gaussian	-3890
▁galvanic	-3891
▁existence	-3892
▁prevention	-3893
▁individuals	-3894
▁organization	-3895
ape	-3896
eth	-3897
bing	-3898
radi	-3899
▁ide	-3900
▁link	-3901
,10,5)	-3902
▁govern	-3903
▁lasing	-3904
▁Storage	-3905
▁alternate	-3906
▁diminishing	-3907
▁undesirable	-3908
Mg	-3909
700	-3910
uge	-3911
▁Inv	-3912
ators	-3913
▁Pers	-3914
▁Salv	-3915
itting	-3916
▁clear	-3917
▁alloys	-3918
▁fringe	-3919
▁Salvage	-3920
▁Mathemat	-3921
▁followed	-3922
edimentation	-3923
▁agricultural	-3924
▁𝜀	-3925
	-3926
▁Zn	-3927
nces	-3928
ters	-3929
▁𝜕𝑡2	-3930
▁fiscal	-3931
▁scarce	-3932
▁Equation	-3933
▁beginning	-3934
▁phosphate	-3935
▁presented	-3936
▁purchased	-3937
▁Electrical	-3938
▁collection	-3939
▁wavelengths	-3940
▁proportional	-3941
)-	-3942
Ba	-3943
NH	-3944
aBa	-3945
▁8.	-3946
flow	-3947
echan	-3948
▁band	-3949
▁Human	-3950
▁gradu	-3951
▁bottom	-3952
▁widely	-3953
▁overall	-3954
▁program	-3955
▁whereas	-3956
▁Industry	-3957
▁critical	-3958
▁typically	-3959
▁Electronic	-3960
▁maintained	-3961
▁redistribution	-3962
6%	-3963
(𝑘𝑥	-3964
▁=3	-3965
cell	-3966
grad	-3967
▁ful	-3968
ening	-3969
onomy	-3970
▁slop	-3971
arging	-3972
▁During	-3973
▁middle	-3974
▁sacrif	-3975
▁fulfill	-3976
▁zeolite	-3977
organisms	-3978
▁transmitted	-3979
▁decomposition	-3980
▁precipitation	-3981
,9	-3982
iO	-3983
(0.	-3984
oud	-3985
hest	-3986
oard	-3987
▁ESP	-3988
▁Ref	-3989
rices	-3990
▁Hard	-3991
▁care	-3992
▁seal	-3993
▁Chlor	-3994
▁pract	-3995
▁sulph	-3996
▁walls	-3997
ordance	-3998
▁exceed	-3999
▁highest	-4000
▁Marginal	-4001
▁received	-4002
▁refining	-4003
▁Wavelength	-4004
▁accordance	-4005
▁impurities	-4006
/(	-4007
oh	-4008
orts	-4009
over	-4010
▁cut	-4011
▁dig	-4012
reens	-4013
▁Flow	-4014
▁Heat	-4015
▁post	-4016
porary	-4017
▁third	-4018
▁active	-4019
▁center	-4020
▁taking	-4021
▁running	-4022
▁screens	-4023
▁lifetime	-4024
▁Temporary	-4025
▁Interference	-4026
▁consideration	-4027
EL	-4028
xic	-4029
▁ep	-4030
▁see	-4031
▁5,000	-4032
▁Graph	-4033
▁bonds	-4034
▁deter	-4035
▁focus	-4036
▁Cathod	-4037
▁Public	-4038
▁hazard	-4039
▁consist	-4040
▁meaning	-4041
▁storage	-4042
▁Consider	-4043
▁dependent	-4044
▁improvement	-4045
pm	-4046
uish	-4047
▁1.0	-4048
▁Low	-4049
▁NNP	-4050
▁Nit	-4051
▁Acid	-4052
▁Given	-4053
▁deriv	-4054
▁activity	-4055
▁cylinder	-4056
▁incinerator	-4057
▁manufacturing	-4058
rd	-4059
=10	-4060
ols	-4061
▁FI	-4062
▁nor	-4063
▁Even	-4064
▁Stage	-4065
▁neither	-4066
▁sectors	-4067
	-4068
▁Examples	-4069
▁discrete	-4070
▁expenses	-4071
▁Atmospheric	-4072
▁ε	-4073
▁𝐸	-4074
EEE	-4075
▁=>	-4076
▁IN	-4077
roun	-4078
urch	-4079
anges	-4080
▁held	-4081
racted	-4082
2=	-4083
ik	-4084
RRO	-4085
URE	-4086
sin	-4087
▁𝑑𝑡	-4088
▁bul	-4089
▁mic	-4090
ector	-4091
rogen	-4092
▁Lime	-4093
▁Most	-4094
▁Turb	-4095
▁rule	-4096
▁CORRO	-4097
▁broad	-4098
▁cross	-4099
▁manag	-4100
▁𝐻⃗⃗⃗)	-4101
atively	-4102
ertical	-4103
▁alkane	-4104
▁simult	-4105
▁adopted	-4106
▁aspects	-4107
▁carried	-4108
▁depreci	-4109
abilities	-4110
▁graphite	-4111
▁outcomes	-4112
▁recovery	-4113
▁CORROSION	-4114
▁distilled	-4115
▁Artificial	-4116
▁objectives	-4117
▁distillation	-4118
▁simultaneous	-4119
QPP	-4120
ASER	-4121
enes	-4122
lling	-4123
price	-4124
▁fill	-4125
▁pack	-4126
▁susp	-4127
▁word	-4128
▁𝐸⃗⃗.	-4129
active	-4130
reshold	-4131
▁cetane	-4132
▁illust	-4133
▁losses	-4134
chemical	-4135
▁allowed	-4136
▁Landfill	-4137
▁recycling	-4138
▁hydrocarbon	-4139
ux	-4140
▁𝜖	-4141
sor	-4142
▁𝜖0	-4143
iver	-4144
most	-4145
▁AND	-4146
▁Ant	-4147
▁NPP	-4148
▁liber	-4149
▁rocks	-4150
▁abroad	-4151
▁biotic	-4152
ousehold	-4153
▁cycling	-4154
▁outside	-4155
▁thermal	-4156
▁Evaluate	-4157
▁examples	-4158
▁oiliness	-4159
▁approximate	-4160
hor	-4161
▁𝐴1	-4162
part	-4163
wage	-4164
▁had	-4165
▁rot	-4166
dense	-4167
▁𝜕𝐵⃗⃗	-4168
ivated	-4169
▁0.000	-4170
riteria	-4171
▁cavity	-4172
▁rather	-4173
agulants	-4174
▁behavior	-4175
▁condense	-4176
..........	-4177
:1	-4178
omin	-4179
▁dri	-4180
▁PbSO	-4181
▁curv	-4182
▁huge	-4183
▁Basic	-4184
▁Depos	-4185
▁Lapse	-4186
▁odour	-4187
issible	-4188
▁descri	-4189
▁reacts	-4190
▁Removal	-4191
▁Marshall	-4192
▁annually	-4193
▁Electrons	-4194
▁curvature	-4195
▁decisions	-4196
............	-4197
56	-4198
vi	-4199
ake	-4200
iln	-4201
▁OH	-4202
	-4203
ones	-4204
uled	-4205
▁𝜙2)	-4206
auses	-4207
▁said	-4208
▁Point	-4209
▁depth	-4210
▁Causes	-4211
▁stress	-4212
▁Quantum	-4213
▁persons	-4214
▁radical	-4215
▁showing	-4216
▁operates	-4217
▁occurring	-4218
▁acceptable	-4219
▁protective	-4220
If	-4221
St	-4222
dV	-4223
▁❖	-4224
𝐻0	-4225
oun	-4226
▁55	-4227
ATER	-4228
aday	-4229
iber	-4230
omer	-4231
rict	-4232
	-4233
(100%	-4234
anjan	-4235
atics	-4236
ought	-4237
▁Dash	-4238
▁Once	-4239
▁buys	-4240
▁𝐵⃗⃗.	-4241
araday	-4242
▁Group	-4243
▁color	-4244
▁∇2𝐸⃗⃗	-4245
ibility	-4246
▁Option	-4247
▁acidic	-4248
▁forces	-4249
▁heated	-4250
▁tempor	-4251
▁Sources	-4252
▁suggest	-4253
▁Hydrogen	-4254
▁tendency	-4255
▁permanent	-4256
▁scattered	-4257
▁characteristic	-4258
6(	-4259
▁]	-4260
hic	-4261
▁ce	-4262
cont	-4263
life	-4264
plus	-4265
▁job	-4266
▁sha	-4267
worth	-4268
▁mill	-4269
▁Minim	-4270
▁Taste	-4271
▁evalu	-4272
uration	-4273
▁ensure	-4274
▁latter	-4275
▁prevail	-4276
▁anaerobic	-4277
▁switching	-4278
▁directions	-4279
▁electricity	-4280
▁precipitates	-4281
▁determination	-4282
=0	-4283
PF	-4284
RS	-4285
AGA	-4286
che	-4287
▁10,	-4288
▁Lim	-4289
▁hor	-4290
▁Just	-4291
▁impl	-4292
▁vers	-4293
▁2,000	-4294
▁accum	-4295
▁green	-4296
actions	-4297
reement	-4298
▁Besides	-4299
▁absorbs	-4300
▁missing	-4301
▁boundary	-4302
▁interact	-4303
▁settling	-4304
▁---------	-4305
▁indicates	-4306
▁interface	-4307
▁allocation	-4308
▁conversion	-4309
to	-4310
000-	-4311
ores	-4312
▁(7)	-4313
▁108	-4314
▁Inf	-4315
𝑐𝑜𝑠𝜙	-4316
𝑠𝑖𝑛𝜙	-4317
ially	-4318
▁Unit	-4319
▁kcal	-4320
▁sole	-4321
▁Cetane	-4322
▁Volume	-4323
▁scales	-4324
agnetism	-4325
ana	-4326
olt	-4327
▁CH	-4328
onic	-4329
▁hab	-4330
light	-4331
ossil	-4332
verse	-4333
▁fron	-4334
▁furn	-4335
abatic	-4336
▁Chain	-4337
▁Other	-4338
▁Ratio	-4339
▁Short	-4340
▁Though	-4341
▁cheques	-4342
▁multiple	-4343
▁deposited	-4344
▁convention	-4345
▁purchasing	-4346
LE	-4347
▁~	-4348
ein	-4349
▁3,	-4350
dden	-4351
▁rec	-4352
orter	-4353
▁tank	-4354
▁reson	-4355
logical	-4356
▁Credit	-4357
▁Prices	-4358
▁sudden	-4359
▁portion	-4360
▁shorter	-4361
▁chromium	-4362
▁starting	-4363
▁Reduction	-4364
▁engineers	-4365
▁Comparison	-4366
▁techniques	-4367
▁Concentration	-4368
AO	-4369
▁〈	-4370
00(	-4371
lig	-4372
rev	-4373
uri	-4374
▁OQ	-4375
▁(19	-4376
▁Both	-4377
▁CaSO	-4378
▁Disp	-4379
▁come	-4380
▁write	-4381
▁detail	-4382
▁exists	-4383
▁Surface	-4384
▁reverse	-4385
▁sulphur	-4386
▁carrying	-4387
▁indirect	-4388
▁zeolites	-4389
▁continues	-4390
▁depreciable	-4391
▁destruction	-4392
1,3	-4393
ees	-4394
▁14	-4395
▁2𝑎	-4396
berg	-4397
onal	-4398
▁vap	-4399
ishes	-4400
ouble	-4401
oaming	-4402
ourage	-4403
▁funds	-4404
▁vehic	-4405
▁Effici	-4406
▁Period	-4407
▁Aquatic	-4408
▁receive	-4409
▁respect	-4410
▁synthetic	-4411
▁Efficiency	-4412
▁artificial	-4413
▁depositors	-4414
▁reflection	-4415
▁calculations	-4416
cum	-4417
▁Dn	-4418
amber	-4419
burse	-4420
odies	-4421
ulses	-4422
▁Case	-4423
▁sulp	-4424
▁Level	-4425
▁Stand	-4426
▁Their	-4427
▁grain	-4428
▁Octane	-4429
▁allows	-4430
▁degrad	-4431
▁pulses	-4432
▁Current	-4433
▁chamber	-4434
▁offered	-4435
▁started	-4436
▁travels	-4437
▁advances	-4438
▁deterior	-4439
▁Secondary	-4440
▁frequently	-4441
.6	-4442
Et	-4443
,8,	-4444
8.1	-4445
ump	-4446
▁AB	-4447
▁Sa	-4448
lycol	-4449
▁Commun	-4450
▁stable	-4451
ationing	-4452
▁Concept	-4453
▁harmful	-4454
▁plastic	-4455
▁procedure	-4456
▁complement	-4457
▁combustible	-4458
▁manufacture	-4459
▁Characteristics	-4460
CT	-4461
ID	-4462
oda	-4463
say	-4464
▁26	-4465
ANTS	-4466
osph	-4467
▁Des	-4468
▁ten	-4469
anger	-4470
ledge	-4471
octane	-4472
▁fully	-4473
ructive	-4474
▁orders	-4475
▁stream	-4476
▁though	-4477
▁regions	-4478
▁branched	-4479
▁confined	-4480
▁Numerical	-4481
▁creditors	-4482
▁LUBRICANTS	-4483
79	-4484
DS	-4485
IT	-4486
4.0	-4487
▁Col	-4488
▁HCV	-4489
▁adm	-4490
▁den	-4491
endly	-4492
▁8000	-4493
▁deox	-4494
▁paid	-4495
▁risk	-4496
austic	-4497
▁loads	-4498
▁plano	-4499
▁river	-4500
▁satur	-4501
▁taste	-4502
riendly	-4503
▁15,000	-4504
▁Common	-4505
▁Figure	-4506
▁sewage	-4507
ittivity	-4508
▁cooling	-4509
ygenation	-4510
▁ultimate	-4511
▁Intensity	-4512
▁collected	-4513
▁preparing	-4514
▁resulting	-4515
▁Commercial	-4516
▁permittivity	-4517
▁deoxygenation	-4518
vt	-4519
▁ν	-4520
▁ρ	-4521
𝑒𝑟	-4522
9.0	-4523
ALR	-4524
lay	-4525
▁𝜕𝑇	-4526
GURE	-4527
oday	-4528
▁196	-4529
▁opt	-4530
▁ppm	-4531
▁pul	-4532
	-4533
▁just	-4534
aining	-4535
▁Produ	-4536
▁Today	-4537
▁debts	-4538
▁FIGURE	-4539
▁Import	-4540
▁distin	-4541
▁filter	-4542
▁status	-4543
otrophic	-4544
▁Account	-4545
▁Faraday	-4546
▁concent	-4547
▁traders	-4548
▁Applying	-4549
▁vertical	-4550
▁Dissolved	-4551
▁Principal	-4552
▁converted	-4553
▁primarily	-4554
▁temporary	-4555
▁expectation	-4556
▁substitutes	-4557
▁Biodiversity	-4558
▁𝒏	-4559
aun	-4560
ild	-4561
rad	-4562
bust	-4563
ulic	-4564
▁wax	-4565
enced	-4566
oidal	-4567
ensive	-4568
▁guide	-4569
▁spend	-4570
▁absent	-4571
▁advant	-4572
rounding	-4573
ydraulic	-4574
▁install	-4575
▁purposes	-4576
▁selected	-4577
▁providing	-4578
▁turbidity	-4579
▁converting	-4580
▁𝑣	-4581
lex	-4582
ray	-4583
▁1?	-4584
▁23	-4585
▁2𝑡	-4586
▁OX	-4587
▁∆=	-4588
fall	-4589
iary	-4590
inst	-4591
▁300	-4592
▁Rob	-4593
▁Rub	-4594
▁mot	-4595
▁mtr	-4596
▁Coal	-4597
itudes	-4598
ludges	-4599
mental	-4600
▁Quest	-4601
instein	-4602
iration	-4603
▁nearly	-4604
▁bearing	-4605
▁discuss	-4606
▁multipl	-4607
agflation	-4608
▁commonly	-4609
▁estimate	-4610
▁Questions	-4611
▁community	-4612
▁amplitudes	-4613
▁characterized	-4614
74	-4615
Al	-4616
150	-4617
IRR	-4618
unh	-4619
▁81	-4620
▁NH	-4621
ulph	-4622
▁arr	-4623
allic	-4624
celer	-4625
raunh	-4626
achate	-4627
▁Taxes	-4628
▁usual	-4629
▁Forest	-4630
▁review	-4631
▁termed	-4632
▁Balance	-4633
▁Methods	-4634
▁Physics	-4635
▁created	-4636
▁disulph	-4637
▁liquids	-4638
▁constitu	-4639
▁designed	-4640
▁threshold	-4641
▁biogeochemical	-4642
4+	-4643
9%	-4644
So	-4645
Th	-4646
rel	-4647
ued	-4648
▁FC	-4649
2022	-4650
▁4.1	-4651
▁Div	-4652
▁bed	-4653
▁bel	-4654
oxide	-4655
▁acqu	-4656
,10,4)	-4657
▁mobil	-4658
▁quick	-4659
▁serve	-4660
▁trave	-4661
▁Indian	-4662
▁cation	-4663
▁easier	-4664
▁enough	-4665
▁evapor	-4666
▁likely	-4667
magnetic	-4668
▁Working	-4669
▁exposed	-4670
▁figures	-4671
▁furnace	-4672
▁Material	-4673
▁progress	-4674
▁Prevention	-4675
▁travelling	-4676
lf	-4677
31.	-4678
emb	-4679
▁el	-4680
▁𝑖̂	-4681
room	-4682
▁MAC	-4683
ernal	-4684
▁1500	-4685
▁Fres	-4686
▁MgCO	-4687
▁Year	-4688
▁incl	-4689
▁true	-4690
sidies	-4691
▁cells	-4692
▁check	-4693
1(4,000	-4694
400,000	-4695
▁margin	-4696
rictions	-4697
▁Reactor	-4698
▁instead	-4699
▁markets	-4700
▁reactor	-4701
▁marketing	-4702
▁Ecological	-4703
1(4,000,000)	-4704
AP	-4705
	-4706
122	-4707
BOD	-4708
due	-4709
▁2-	-4710
▁6.	-4711
▁SL	-4712
▁Sn	-4713
▁TO	-4714
▁es	-4715
QPPQ	-4716
aper	-4717
▁Das	-4718
iston	-4719
▁Magn	-4720
▁That	-4721
▁deep	-4722
𝑙⃗⃗⃗⃗	-4723
▁prove	-4724
ammable	-4725
▁Fraunh	-4726
▁choose	-4727
▁inflow	-4728
▁periods	-4729
▁raising	-4730
▁engineer	-4731
▁facility	-4732
▁minerals	-4733
▁Magnesium	-4734
▁Phosphate	-4735
▁insoluble	-4736
▁Lubricants	-4737
▁corresponds	-4738
▁liabilities	-4739
88	-4740
Pb	-4741
nm	-4742
211	-4743
ems	-4744
▁LP	-4745
▁15%	-4746
▁Rev	-4747
▁pie	-4748
inery	-4749
▁cast	-4750
▁last	-4751
▁live	-4752
ifying	-4753
riming	-4754
▁liter	-4755
▁polar	-4756
▁shape	-4757
▁Future	-4758
▁across	-4759
▁copper	-4760
▁Different	-4761
▁Disposable	-4762
2:	-4763
Lt	-4764
250	-4765
3.3	-4766
inf	-4767
lob	-4768
vii	-4769
▁pH	-4770
rene	-4771
▁Form	-4772
▁Ruby	-4773
▁biod	-4774
▁fire	-4775
▁pred	-4776
▁shar	-4777
20,000	-4778
olution	-4779
▁Assume	-4780
▁Comput	-4781
▁coming	-4782
▁Sulphur	-4783
▁promote	-4784
▁preparation	-4785
72	-4786
sis	-4787
oper	-4788
▁(6)	-4789
▁past	-4790
▁plays	-4791
▁theis	-4792
▁arrows	-4793
▁author	-4794
equation	-4795
▁Selling	-4796
▁Electrom	-4797
▁properly	-4798
▁Alkalinity	-4799
▁processing	-4800
▁undertaken	-4801
▁Electromagnetic	-4802
.9	-4803
CC	-4804
𝑘𝑧	-4805
HCl	-4806
▁2?	-4807
rade	-4808
▁Pay	-4809
▁smo	-4810
▁𝑤𝑡)	-4811
egrad	-4812
utral	-4813
▁Step	-4814
▁blow	-4815
▁pros	-4816
▁sale	-4817
▁wear	-4818
ameter	-4819
hemist	-4820
omogen	-4821
▁Fiber	-4822
▁Limit	-4823
▁chart	-4824
▁could	-4825
▁crude	-4826
▁great	-4827
▁never	-4828
▁soaps	-4829
▁12,000	-4830
▁Compon	-4831
▁Invest	-4832
▁behalf	-4833
▁earned	-4834
▁mixing	-4835
▁strong	-4836
attering	-4837
▁Photons	-4838
▁equally	-4839
▁keeping	-4840
▁cracking	-4841
▁Selection	-4842
▁degradation	-4843
Px	-4844
▁70	-4845
▁Pt	-4846
▁𝜀0	-4847
eros	-4848
▁eth	-4849
▁lev	-4850
ocking	-4851
▁Costs	-4852
▁knock	-4853
▁social	-4854
▁operate	-4855
▁resistant	-4856
▁bicarbonates	-4857
Cos	-4858
amp	-4859
▁(3	-4860
▁Dr	-4861
▁Lt	-4862
▁Pe	-4863
▁sk	-4864
atty	-4865
body	-4866
▁(𝑘𝑥	-4867
▁Fac	-4868
▁TON	-4869
ifies	-4870
ports	-4871
▁Long	-4872
▁room	-4873
▁root	-4874
ductor	-4875
▁Super	-4876
▁bills	-4877
▁crest	-4878
▁fatty	-4879
▁rules	-4880
▁𝜕2𝐸⃗⃗	-4881
▁Prepar	-4882
▁Aerobic	-4883
▁Inciner	-4884
2]	-4885
Ae	-4886
▁45	-4887
	-4888
▁Ann	-4889
▁aff	-4890
0000(	-4891
▁able	-4892
unicip	-4893
▁Class	-4894
▁Light	-4895
▁bread	-4896
▁going	-4897
ecology	-4898
▁Mechan	-4899
▁settle	-4900
▁Density	-4901
▁Thermal	-4902
▁caustic	-4903
▁controlled	-4904
▁calculating	-4905
▁electrolyte	-4906
▁surrounding	-4907
IM	-4908
TR	-4909
{(	-4910
20)	-4911
▁6)	-4912
MENT	-4913
▁sil	-4914
▁vir	-4915
igher	-4916
▁idea	-4917
▁𝐷⃗⃗⃗	-4918
▁grant	-4919
▁toxic	-4920
▁better	-4921
▁compens	-4922
▁determin	-4923
▁household	-4924
▁populated	-4925
▁containers	-4926
▁functioning	-4927
▁contamination	-4928
▁sedimentation	-4929
sp	-4930
isw	-4931
rat	-4932
▁Of	-4933
lash	-4934
ners	-4935
viii	-4936
▁Tri	-4937
ustic	-4938
▁Book	-4939
▁Mult	-4940
▁ends	-4941
atures	-4942
▁Integ	-4943
▁front	-4944
▁inner	-4945
▁polym	-4946
▁toler	-4947
▁volat	-4948
▁costly	-4949
▁Caustic	-4950
▁acceler	-4951
▁mathemat	-4952
▁planning	-4953
▁economist	-4954
▁tolerance	-4955
▁coagulants	-4956
▁Superposition	-4957
OI	-4958
ug	-4959
2.8	-4960
24)	-4961
Act	-4962
▁.𝑑	-4963
▁13	-4964
▁=6	-4965
▁IC	-4966
arch	-4967
ppro	-4968
vity	-4969
▁Ign	-4970
anies	-4971
▁Ampl	-4972
▁cond	-4973
▁cult	-4974
▁unst	-4975
dinary	-4976
inuous	-4977
▁early	-4978
ounding	-4979
▁Assets	-4980
▁almost	-4981
▁freely	-4982
▁recogn	-4983
▁Optical	-4984
▁burning	-4985
▁gravity	-4986
▁soluble	-4987
▁Graphite	-4988
▁salaries	-4989
▁simplest	-4990
▁unstable	-4991
▁Treatment	-4992
▁graphical	-4993
▁magnesium	-4994
▁multimode	-4995
▁assumptions	-4996
▁permissible	-4997
Vs	-4998
cho	-4999
han	-5000
men	-5001
war	-5002
MARR	-5003
mium	-5004
ulty	-5005
wave	-5006
wice	-5007
	-5008
ached	-5009
tered	-5010
ashing	-5011
▁Field	-5012
▁radio	-5013
▁veget	-5014
50,000)	-5015
▁glycol	-5016
▁happen	-5017
400,000)	-5018
▁hydroph	-5019
▁Capacity	-5020
▁consumed	-5021
▁converts	-5022
▁disburse	-5023
▁suspended	-5024
▁vegetable	-5025
▁Increasing	-5026
▁disulphide	-5027
▁bicarbonate	-5028
73	-5029
CI	-5030
▁28	-5031
▁Qd	-5032
▁𝜆𝑅	-5033
NaCl	-5034
zing	-5035
▁RCO	-5036
▁fix	-5037
▁pow	-5038
andom	-5039
arent	-5040
iswal	-5041
quant	-5042
thing	-5043
▁Lead	-5044
▁fash	-5045
▁indu	-5046
▁rock	-5047
	-5048
▁10000	-5049
▁Amper	-5050
▁Anode	-5051
▁hoard	-5052
▁litre	-5053
▁slits	-5054
	-5055
isation	-5056
jection	-5057
ruments	-5058
▁Biswal	-5059
▁People	-5060
▁curves	-5061
▁peroxy	-5062
▁places	-5063
▁resins	-5064
ceptible	-5065
▁capable	-5066
▁fashion	-5067
▁Emission	-5068
▁oxidized	-5069
▁personal	-5070
▁stopping	-5071
▁Equations	-5072
▁Perfectly	-5073
▁Resources	-5074
▁emulsions	-5075
▁mechanism	-5076
▁sustained	-5077
▁technique	-5078
▁monitoring	-5079
▁susceptible	-5080
▁Consequently	-5081
▁continuously	-5082
▁simultaneously	-5083
.(	-5084
2/	-5085
An	-5086
gm	-5087
AND	-5088
▁=4	-5089
ably	-5090
gram	-5091
▁DEM	-5092
▁GPP	-5093
▁Run	-5094
▁eqn	-5095
acent	-5096
▁repl	-5097
aseous	-5098
ground	-5099
ominal	-5100
roscop	-5101
▁medic	-5102
▁unlim	-5103
lexible	-5104
▁DEMAND	-5105
▁interf	-5106
▁notice	-5107
▁raised	-5108
▁Annuity	-5109
▁Revenue	-5110
▁alkanes	-5111
▁adjacent	-5112
▁articles	-5113
▁selection	-5114
▁unlimited	-5115
▁variables	-5116
WO	-5117
bl	-5118
ze	-5119
ɸE	-5120
30)	-5121
QTC	-5122
▁𝐷𝑛	-5123
QTVC	-5124
REWO	-5125
comm	-5126
vert	-5127
▁Add	-5128
▁Env	-5129
▁Pol	-5130
▁web	-5131
asant	-5132
osing	-5133
osion	-5134
veals	-5135
▁Only	-5136
REWORD	-5137
▁Scale	-5138
▁While	-5139
ivalent	-5140
ributes	-5141
▁Health	-5142
▁Policy	-5143
▁alkali	-5144
▁analys	-5145
▁buying	-5146
▁giving	-5147
▁transp	-5148
▁Disting	-5149
▁changed	-5150
▁mirrors	-5151
▁reveals	-5152
▁thought	-5153
▁Estimate	-5154
▁FOREWORD	-5155
▁administ	-5156
▁vehicles	-5157
▁distribut	-5158
▁subjected	-5159
▁Filtration	-5160
▁dispersive	-5161
▁Distinguish	-5162
▁Lubricating	-5163
3/	-5164
▁𝜓	-5165
𝑘𝑦	-5166
1.5	-5167
pol	-5168
sim	-5169
▁ge	-5170
2000	-5171
Kcal	-5172
izon	-5173
ofer	-5174
▁ash	-5175
▁neat	-5176
convex	-5177
▁least	-5178
▁upper	-5179
▁Single	-5180
▁danger	-5181
▁double	-5182
▁interm	-5183
▁shares	-5184
	-5185
ployment	-5186
▁Science	-5187
▁horizon	-5188
▁rubbing	-5189
▁Einstein	-5190
▁entering	-5191
▁tangible	-5192
▁influenced	-5193
▁distributed	-5194
	-5195
',	-5196
oir	-5197
ran	-5198
▁pw	-5199
rays	-5200
▁(8)	-5201
▁Enc	-5202
▁sun	-5203
lobal	-5204
udget	-5205
▁10%,	-5206
▁Anti	-5207
▁cold	-5208
(0.15)	-5209
uality	-5210
▁emits	-5211
▁shear	-5212
▁silic	-5213
istance	-5214
omogene	-5215
ranular	-5216
▁Discus	-5217
▁Proper	-5218
▁leaves	-5219
▁namely	-5220
▁others	-5221
▁slopes	-5222
▁Mention	-5223
▁varying	-5224
▁Galvanic	-5225
▁collects	-5226
▁treating	-5227
▁Statement	-5228
▁basically	-5229
▁exchanger	-5230
▁involving	-5231
▁Components	-5232
▁Lubrication	-5233
▁contributed	-5234
▁conditioning	-5235
(1	-5236
pr	-5237
sc	-5238
2),	-5239
ING	-5240
aid	-5241
dis	-5242
hol	-5243
ken	-5244
▁𝜕𝐷	-5245
isen	-5246
rely	-5247
▁key	-5248
orous	-5249
▁deal	-5250
annual	-5251
▁loses	-5252
▁reach	-5253
▁still	-5254
▁𝜕𝐷⃗⃗⃗	-5255
▁Change	-5256
▁Heisen	-5257
ifferent	-5258
tenuation	-5259
▁Moisture	-5260
▁existing	-5261
▁intended	-5262
▁Heisenberg	-5263
▁incoherent	-5264
▁consequently	-5265
iy	-5266
▁𝑐	-5267
	-5268
𝑑𝑣	-5269
1.2	-5270
=+−	-5271
bit	-5272
ict	-5273
oke	-5274
▁(𝑒	-5275
▁𝑑𝜃	-5276
ayak	-5277
cles	-5278
iers	-5279
pact	-5280
pull	-5281
▁Arc	-5282
▁Ion	-5283
▁wet	-5284
ayers	-5285
cient	-5286
fined	-5287
▁8190	-5288
▁Data	-5289
▁Nayak	-5290
▁Stoke	-5291
▁matur	-5292
▁monop	-5293
▁rough	-5294
▁⃗⃗⃗𝑑𝑣	-5295
▁200000	-5296
▁Impact	-5297
▁Ranjan	-5298
▁Taking	-5299
▁circul	-5300
▁intern	-5301
▁Pyramid	-5302
▁arrange	-5303
▁happens	-5304
▁2,00,000	-5305
▁maturity	-5306
▁Calorific	-5307
▁Materials	-5308
▁carefully	-5309
▁horizontal	-5310
▁constituents	-5311
▁international	-5312
6+	-5313
II	-5314
km	-5315
ks	-5316
alk	-5317
met	-5318
4090	-5319
rary	-5320
▁Pat	-5321
▁dut	-5322
arine	-5323
▁base	-5324
▁list	-5325
▁mark	-5326
▁tear	-5327
▁MACRS	-5328
▁bring	-5329
cellent	-5330
▁Priming	-5331
▁Problem	-5332
▁differs	-5333
▁failure	-5334
▁implies	-5335
▁quickly	-5336
▁Compound	-5337
▁advancing	-5338
▁comparing	-5339
▁excellent	-5340
▁emulsifier	-5341
▁differences	-5342
▁restrictions	-5343
▁proportionate	-5344
0,	-5345
TB	-5346
zm	-5347
Pro	-5348
SiO	-5349
TIC	-5350
alu	-5351
hub	-5352
max	-5353
uff	-5354
▁63	-5355
▁Ja	-5356
	-5357
kdar	-5358
time	-5359
▁106	-5360
▁End	-5361
▁unf	-5362
arged	-5363
ideep	-5364
oltzm	-5365
▁Bhub	-5366
▁Dest	-5367
▁Kcal	-5368
▁Rech	-5369
▁Talu	-5370
▁emit	-5371
▁infl	-5372
▁scho	-5373
ademic	-5374
▁WATER	-5375
▁adopt	-5376
▁optim	-5377
aneswar	-5378
▁lather	-5379
▁phenol	-5380
oltzmann	-5381
▁Jaideep	-5382
▁desires	-5383
▁extract	-5384
▁persist	-5385
▁section	-5386
▁Recharge	-5387
▁Talukdar	-5388
▁diagrams	-5389
▁resonant	-5390
▁surround	-5391
▁Catalytic	-5392
▁Functions	-5393
▁Synthesis	-5394
▁carbonate	-5395
▁regulates	-5396
▁separated	-5397
▁importance	-5398
▁prevailing	-5399
▁Bhubaneswar	-5400
▁atmospheric	-5401
Environmental	-5402
19	-5403
1]	-5404
	-5405
3.7	-5406
ien	-5407
▁vs	-5408
cost	-5409
ient	-5410
▁Sus	-5411
▁gap	-5412
▁iso	-5413
(∇⃗⃗⃗	-5414
inite	-5415
izing	-5416
ptane	-5417
urban	-5418
venues	-5419
▁aware	-5420
▁Solids	-5421
▁boards	-5422
▁microb	-5423
▁resort	-5424
▁Personal	-5425
▁advanced	-5426
▁harmonic	-5427
▁reflects	-5428
▁revenues	-5429
▁diameters	-5430
▁extremely	-5431
▁reference	-5432
▁∇⃗⃗⃗(∇⃗⃗⃗	-5433
▁assessment	-5434
no	-5435
111	-5436
=	-5437
Int	-5438
omb	-5439
pqq	-5440
▁),	-5441
▁Av	-5442
▁Do	-5443
▁Kn	-5444
▁Sk	-5445
▁UV	-5446
arse	-5447
arts	-5448
▁107	-5449
▁DDB	-5450
▁emf	-5451
▁oce	-5452
utive	-5453
▁Less	-5454
▁ligh	-5455
overed	-5456
▁Purch	-5457
▁buyer	-5458
▁cheap	-5459
▁macro	-5460
▁recip	-5461
▁white	-5462
▁porous	-5463
▁starts	-5464
▁Program	-5465
▁lighter	-5466
▁Decrease	-5467
▁Transport	-5468
▁schedules	-5469
▁Protection	-5470
▁Limitations	-5471
▁compounding	-5472
▁successfully	-5473
▁deterioration	-5474
▁fractionating	-5475
15)	-5476
son	-5477
ativ	-5478
ured	-5479
▁Fin	-5480
level	-5481
bustion	-5482
▁desire	-5483
▁station	-5484
▁willing	-5485
infection	-5486
▁Property	-5487
▁prevents	-5488
▁excessive	-5489
▁scheduled	-5490
▁Collection	-5491
▁Calculation	-5492
▁Maintenance	-5493
aq	-5494
px	-5495
▁𝝀	-5496
00,	-5497
8.2	-5498
ICS	-5499
▁𝒏𝝀	-5500
aBaP	-5501
aque	-5502
▁And	-5503
▁Ext	-5504
▁OYF	-5505
bient	-5506
cycle	-5507
▁(2.3	-5508
▁2016	-5509
▁8500	-5510
▁Zeol	-5511
▁dust	-5512
▁Cross	-5513
▁Intro	-5514
▁thank	-5515
clusion	-5516
pressed	-5517
▁Design	-5518
▁opaque	-5519
▁trough	-5520
changein	-5521
hemistry	-5522
▁Zeolite	-5523
▁condens	-5524
▁finance	-5525
▁growing	-5526
▁interse	-5527
▁municip	-5528
▁nominal	-5529
▁sludges	-5530
▁surplus	-5531
▁utility	-5532
etization	-5533
▁Measures	-5534
▁absorbed	-5535
▁accepted	-5536
▁contract	-5537
▁crystall	-5538
▁advantage	-5539
▁electrode	-5540
▁tunneling	-5541
▁principles	-5542
▁frequencies	-5543
▁investments	-5544
▁traditional	-5545
▁Introduction	-5546
▁intersection	-5547
2)2	-5548
Com	-5549
ley	-5550
▁1-	-5551
▁17	-5552
▁Di	-5553
▁Ev	-5554
▁mm	-5555
▁sy	-5556
▁Vis	-5557
▁[𝑖̂	-5558
▁bro	-5559
▁lat	-5560
▁uns	-5561
▁Uses	-5562
▁carb	-5563
▁weld	-5564
utroph	-5565
▁outlay	-5566
▁Deposit	-5567
▁illumin	-5568
▁reaches	-5569
▁Indirect	-5570
▁currently	-5571
▁employees	-5572
▁Incoherent	-5573
▁scattering	-5574
▁separation	-5575
▁theofenergy	-5576
utrophication	-5577
▁understanding	-5578
▁photoelectrons	-5579
)3	-5580
+𝑑	-5581
Em	-5582
RH	-5583
▁𝑃	-5584
ras	-5585
orus	-5586
▁600	-5587
▁ECO	-5588
▁Ear	-5589
▁HCl	-5590
▁rod	-5591
ember	-5592
▁1949	-5593
▁Sulp	-5594
▁Very	-5595
▁publ	-5596
▁rail	-5597
▁rech	-5598
rating	-5599
ressed	-5600
ulence	-5601
▁adequ	-5602
▁oppos	-5603
▁paper	-5604
▁pipes	-5605
▁brings	-5606
▁fossil	-5607
osphorus	-5608
▁debtors	-5609
▁hazards	-5610
▁proceed	-5611
▁charging	-5612
▁valuable	-5613
▁Turbidity	-5614
▁classroom	-5615
▁adjustment	-5616
▁Depreciable	-5617
▁Electronics	-5618
▁equivalence	-5619
▁propagating	-5620
▁underdeveloped	-5621
/2	-5622
1:	-5623
78	-5624
µ0	-5625
▁?	-5626
6.2	-5627
oul	-5628
▁dB	-5629
athy	-5630
gall	-5631
lete	-5632
▁Are	-5633
▁Gen	-5634
▁Med	-5635
▁nth	-5636
cible	-5637
pathy	-5638
▁(0.1	-5639
▁Soil	-5640
▁entr	-5641
▁fair	-5642
solete	-5643
▁Metal	-5644
▁drawn	-5645
▁flash	-5646
▁quite	-5647
▁Marine	-5648
▁favour	-5649
▁former	-5650
▁limits	-5651
economic	-5652
▁Genetic	-5653
▁Tripathy	-5654
▁friendly	-5655
▁periodic	-5656
▁depreciate	-5657
▁definitions	-5658
▁Contribution	-5659
▁hydrological	-5660
7(	-5661
YY	-5662
xm	-5663
	-5664
LID	-5665
ger	-5666
oly	-5667
▁+2	-5668
▁11	-5669
▁SY	-5670
	-5671
enet	-5672
iles	-5673
that	-5674
▁(𝑖̂	-5675
alari	-5676
erred	-5677
isons	-5678
racks	-5679
▁(10)	-5680
▁agre	-5681
▁stri	-5682
4.09.0	-5683
▁Appro	-5684
▁Monod	-5685
▁perme	-5686
▁Degree	-5687
▁Govern	-5688
▁piston	-5689
▁specul	-5690
▁Pitting	-5691
▁coating	-5692
▁opening	-5693
▁Computer	-5694
▁Moreover	-5695
▁category	-5696
▁handling	-5697
▁location	-5698
▁organism	-5699
▁shortage	-5700
osynthesis	-5701
▁Amplitude	-5702
▁attention	-5703
▁Continuous	-5704
▁determines	-5705
▁normalized	-5706
▁description	-5707
▁possibility	-5708
ICE	-5709
with	-5710
▁DRE	-5711
▁Syn	-5712
▁fam	-5713
▁mer	-5714
▁tot	-5715
7,000	-5716
ordin	-5717
entures	-5718
ilation	-5719
product	-5720
▁Simple	-5721
▁avoided	-5722
▁medical	-5723
▁Disposal	-5724
▁creation	-5725
▁inclined	-5726
▁spectral	-5727
▁Activated	-5728
▁fractions	-5729
▁shortages	-5730
▁Evaluation	-5731
▁accumulate	-5732
▁∇⃗⃗⃗(∇⃗⃗⃗.	-5733
CB	-5734
CS	-5735
▁u	-5736
𝑒𝑎	-5737
ano	-5738
cem	-5739
iEt	-5740
til	-5741
▁-3	-5742
▁PH	-5743
𝑟𝑒𝑎	-5744
ASTE	-5745
ghts	-5746
▁12,	-5747
▁15,	-5748
▁Whe	-5749
▁dia	-5750
▁him	-5751
▁lot	-5752
▁six	-5753
▁vib	-5754
-----	-5755
asons	-5756
omass	-5757
▁Many	-5758
▁gear	-5759
▁kiln	-5760
▁neon	-5761
▁stay	-5762
▁unem	-5763
cember	-5764
▁coinc	-5765
▁deple	-5766
▁ether	-5767
▁piece	-5768
▁shall	-5769
▁twice	-5770
▁until	-5771
ildlife	-5772
▁Matter	-5773
▁bodies	-5774
▁phones	-5775
▁Benefit	-5776
▁Cathode	-5777
▁Heating	-5778
▁Reasons	-5779
▁Whether	-5780
▁biomass	-5781
▁nuclear	-5782
▁December	-5783
▁Circuital	-5784
▁knowledge	-5785
▁intangible	-5786
▁operations	-5787
▁emulsifying	-5788
▁disbursements	-5789
(2	-5790
44	-5791
=	-5792
dd	-5793
ym	-5794
2.5	-5795
lyb	-5796
▁PR	-5797
▁Ro	-5798
atom	-5799
▁3.1	-5800
▁Haw	-5801
denum	-5802
▁0.45	-5803
abilit	-5804
▁users	-5805
anation	-5806
idation	-5807
ruption	-5808
▁ignite	-5809
1,00,000	-5810
lybdenum	-5811
▁Changes	-5812
▁monthly	-5813
▁outflow	-5814
	-5815
▁duration	-5816
▁ordinary	-5817
▁replaced	-5818
▁mechanics	-5819
▁solutions	-5820
▁Biological	-5821
▁completely	-5822
▁saturation	-5823
▁uncertaint	-5824
▁interfering	-5825
3-	-5826
𝟐𝒏	-5827
AIM	-5828
gon	-5829
run	-5830
▁my	-5831
▁𝟏)	-5832
ISCL	-5833
▁(𝐴1	-5834
▁20%	-5835
▁Mis	-5836
▁her	-5837
AIMER	-5838
ritus	-5839
▁10-3	-5840
▁Give	-5841
▁Soda	-5842
▁exam	-5843
ateful	-5844
▁Audit	-5845
▁DISCL	-5846
▁LASER	-5847
▁sites	-5848
centage	-5849
▁errors	-5850
▁firmly	-5851
▁incase	-5852
▁random	-5853
ediately	-5854
piration	-5855
▁achieve	-5856
▁ignites	-5857
▁imposes	-5858
▁profile	-5859
▁vectors	-5860
▁grateful	-5861
▁softened	-5862
▁transmit	-5863
▁catalytic	-5864
omerization	-5865
▁DISCLAIMER	-5866
▁Dispersion	-5867
▁arrangement	-5868
▁prospective	-5869
▁Biogeochemical	-5870
▁Mathematically	-5871
▁representation	-5872
BO	-5873
MO	-5874
We	-5875
bo	-5876
zed	-5877
▁Hu	-5878
▁{(	-5879
5000	-5880
irth	-5881
line	-5882
vers	-5883
▁Giff	-5884
▁sand	-5885
called	-5886
carbon	-5887
▁yield	-5888
▁Amount	-5889
▁Higher	-5890
▁anodes	-5891
▁reject	-5892
▁angular	-5893
▁gradual	-5894
▁powerful	-5895
▁implement	-5896
▁liberated	-5897
▁applicable	-5898
▁economists	-5899
▁reflecting	-5900
▁Information	-5901
▁illustrated	-5902
▁transferred	-5903
)1(	-5904
2.2	-5905
man	-5906
▁LC	-5907
▁Mn	-5908
▁da	-5909
	-5910
955.	-5911
NaOH	-5912
SAGA	-5913
unal	-5914
uxil	-5915
▁EAW	-5916
▁las	-5917
▁leg	-5918
▁𝑠𝑖𝑛	-5919
	-5920
after	-5921
▁----	-5922
▁200%	-5923
▁foam	-5924
▁Divid	-5925
▁Reuse	-5926
▁auxil	-5927
▁incom	-5928
▁sizes	-5929
▁stagn	-5930
ribunal	-5931
▁Vector	-5932
▁consec	-5933
▁export	-5934
▁lasers	-5935
polation	-5936
▁dioxide	-5937
▁foaming	-5938
▁solving	-5939
▁Academic	-5940
▁Agricult	-5941
▁Autonomy	-5942
▁Leachate	-5943
▁Spectral	-5944
omogeneous	-5945
▁Agreement	-5946
▁auxiliary	-5947
▁conserved	-5948
▁constitut	-5949
▁evaluated	-5950
▁undergoes	-5951
▁withstand	-5952
▁productive	-5953
▁successive	-5954
▁consecutive	-5955
▁explanation	-5956
▁graphically	-5957
▁significantly	-5958
)}	-5959
.-	-5960
12.	-5961
ply	-5962
itic	-5963
just	-5964
rain	-5965
rint	-5966
▁COD	-5967
▁Deb	-5968
▁Dem	-5969
▁III	-5970
▁LCV	-5971
▁Mes	-5972
▁San	-5973
▁esc	-5974
cohol	-5975
imals	-5976
▁Like	-5977
▁kind	-5978
▁matt	-5979
▁save	-5980
iments	-5981
inding	-5982
solute	-5983
………..(	-5984
▁Black	-5985
▁cloud	-5986
▁tools	-5987
▁advert	-5988
▁avoids	-5989
▁dissol	-5990
▁switch	-5991
▁details	-5992
▁matters	-5993
▁release	-5994
▁1,20,000	-5995
▁absolute	-5996
▁performs	-5997
▁machinery	-5998
▁rationing	-5999
▁satisfied	-6000
▁spreading	-6001
▁Industrial	-6002
▁evaporation	-6003
(8	-6004
)]	-6005
HE	-6006
Vw	-6007
zk	-6008
▁	-6009
(3)	-6010
.1,	-6011
105	-6012
2%,	-6013
=2-	-6014
but	-6015
ese	-6016
iyj	-6017
▁(-	-6018
▁𝐼𝑚	-6019
Step	-6020
eing	-6021
▁Hel	-6022
▁Lat	-6023
▁adi	-6024
▁pic	-6025
▁ren	-6026
▁tin	-6027
31.45	-6028
alloc	-6029
illed	-6030
rower	-6031
▁+100	-6032
▁2𝑎2(	-6033
▁sens	-6034
25,000	-6035
single	-6036
▁Again	-6037
▁burns	-6038
▁dilig	-6039
▁handy	-6040
▁media	-6041
Benefit	-6042
▁Helium	-6043
▁Latent	-6044
▁Sounds	-6045
▁crests	-6046
▁depart	-6047
▁promot	-6048
▁stands	-6049
▁worked	-6050
partment	-6051
▁Faculty	-6052
▁Theorem	-6053
▁absence	-6054
▁express	-6055
▁induces	-6056
▁mention	-6057
▁picture	-6058
economies	-6059
▁Particle	-6060
▁borrower	-6061
▁creating	-6062
▁improved	-6063
▁movement	-6064
▁quantify	-6065
allocation	-6066
▁Anaerobic	-6067
▁Chemistry	-6068
▁Keynesian	-6069
▁adiabatic	-6070
▁conductor	-6071
▁deduction	-6072
▁relations	-6073
▁diligently	-6074
▁introduced	-6075
▁departments	-6076
▁diseconomies	-6077
▁environments	-6078
4%	-6079
6.	-6080
=?	-6081
DT	-6082
▁𝐹	-6083
DTA	-6084
rot	-6085
ury	-6086
▁Ct	-6087
	-6088
.264	-6089
osen	-6090
▁CaZ	-6091
▁Del	-6092
▁Nal	-6093
▁ago	-6094
▁bri	-6095
acted	-6096
arded	-6097
arget	-6098
orrow	-6099
▁EDTA	-6100
▁Good	-6101
▁Path	-6102
▁auto	-6103
▁home	-6104
▁once	-6105
▁summ	-6106
▁wire	-6107
ediate	-6108
▁sharp	-6109
cession	-6110
erosene	-6111
roscale	-6112
▁(∇⃗⃗⃗.	-6113
▁broken	-6114
▁corpor	-6115
▁destro	-6116
▁estate	-6117
▁excise	-6118
▁graded	-6119
▁stocks	-6120
▁Foaming	-6121
▁exactly	-6122
▁pricing	-6123
condition	-6124
ventional	-6125
▁Electric	-6126
▁Straight	-6127
▁cleaning	-6128
▁filtered	-6129
▁rainfall	-6130
▁Screening	-6131
▁Viscosity	-6132
▁circuital	-6133
▁compacted	-6134
▁discarded	-6135
▁landfills	-6136
▁approaches	-6137
▁multiplied	-6138
▁anticipated	-6139
▁interpolation	-6140
NC	-6141
−3	-6142
	-6143
ARD	-6144
▁Hy	-6145
▁NA	-6146
/100	-6147
Cont	-6148
apes	-6149
emem	-6150
site	-6151
such	-6152
▁ins	-6153
oping	-6154
utant	-6155
▁Crev	-6156
▁Plas	-6157
▁crev	-6158
▁road	-6159
▁spir	-6160
▁vice	-6161
▁25000	-6162
▁boost	-6163
▁trays	-6164
▁works	-6165
itative	-6166
ometric	-6167
▁Actual	-6168
▁habits	-6169
▁issues	-6170
▁joints	-6171
▁proton	-6172
cladding	-6173
quantity	-6174
▁Private	-6175
▁Pumping	-6176
▁falling	-6177
▁optimum	-6178
▁Equipment	-6179
▁awareness	-6180
▁exception	-6181
▁exhausted	-6182
▁partially	-6183
▁Fraunhofer	-6184
▁Proportion	-6185
▁Wastewater	-6186
▁frictional	-6187
▁throughout	-6188
▁groundwater	-6189
▁oscillation	-6190
▁0.003($50,000)	-6191
▁0.003($400,000)	-6192
5,	-6193
	-6194
EIA	-6195
kel	-6196
net	-6197
ots	-6198
▁ST	-6199
	-6200
obic	-6201
rane	-6202
rope	-6203
▁-10	-6204
▁alt	-6205
▁𝑖𝐸0	-6206
igned	-6207
urope	-6208
vated	-6209
▁Stud	-6210
▁pure	-6211
▁unne	-6212
ganese	-6213
urious	-6214
▁Organ	-6215
▁drops	-6216
▁lapse	-6217
venient	-6218
▁castor	-6219
▁option	-6220
▁packet	-6221
▁pulsed	-6222
▁valley	-6223
▁vapour	-6224
electric	-6225
ographic	-6226
▁Various	-6227
▁welding	-6228
▁Criteria	-6229
▁Integral	-6230
▁altitude	-6231
▁assigned	-6232
▁assuming	-6233
▁communic	-6234
▁Companies	-6235
▁directors	-6236
▁pressures	-6237
▁Definition	-6238
▁Difference	-6239
ulsification	-6240
▁derivatives	-6241
▁progressive	-6242
▁Communication	-6243
▁technological	-6244
wt	-6245
120	-6246
ITY	-6247
LAS	-6248
ONa	-6249
▁QD	-6250
▁SP	-6251
REAS	-6252
ulge	-6253
ynam	-6254
▁175	-6255
▁Alg	-6256
▁Rel	-6257
▁eco	-6258
▁fan	-6259
▁tit	-6260
▁𝑘⃗⃗	-6261
COONa	-6262
earch	-6263
ences	-6264
errit	-6265
ients	-6266
iolet	-6267
uling	-6268
value	-6269
▁Poly	-6270
▁pays	-6271
▁thef	-6272
anging	-6273
inated	-6274
uarine	-6275
▁Crude	-6276
▁Gases	-6277
▁Speed	-6278
▁tanks	-6279
ierarch	-6280
▁Compet	-6281
▁Grease	-6282
▁cheque	-6283
▁coated	-6284
▁copier	-6285
▁rubber	-6286
erritory	-6287
itesimal	-6288
▁Justify	-6289
▁Usually	-6290
▁exceeds	-6291
▁indulge	-6292
▁support	-6293
▁Equating	-6294
▁Internal	-6295
▁Nitrogen	-6296
▁Problems	-6297
▁buildings	-6298
▁discharged	-6299
▁recipients	-6300
▁Accordingly	-6301
▁Preparation	-6302
▁distinction	-6303
▁limitations	-6304
▁replacement	-6305
▁infinitesimal	-6306
eo	-6307
▁𝑡	-6308
	-6309
eng	-6310
▁+3	-6311
▁58	-6312
	-6313
free	-6314
pass	-6315
utes	-6316
▁LPG	-6317
▁She	-6318
▁tro	-6319
▁war	-6320
▁WEEE	-6321
▁Wast	-6322
▁meth	-6323
▁supp	-6324
admium	-6325
▁Board	-6326
▁Power	-6327
▁Robot	-6328
▁block	-6329
▁immis	-6330
▁minus	-6331
▁sugar	-6332
▁versa	-6333
inistry	-6334
▁Altern	-6335
▁circle	-6336
▁detect	-6337
▁overhe	-6338
▁stages	-6339
▁holders	-6340
▁Concepts	-6341
▁Consumer	-6342
▁combined	-6343
▁microwave	-6344
▁quantized	-6345
▁Stimulated	-6346
▁Synecology	-6347
▁allocating	-6348
▁debentures	-6349
▁immiscible	-6350
▁regulatory	-6351
▁Distribution	-6352
▁installments	-6353
/-	-6354
3+	-6355
SI	-6356
0µ0	-6357
637	-6358
NOM	-6359
ats	-6360
ged	-6361
oil	-6362
▁1:	-6363
▁33	-6364
▁6:	-6365
▁CE	-6366
▁𝜕𝐸	-6367
rass	-6368
term	-6369
▁(𝜙1	-6370
▁120	-6371
▁25%	-6372
▁Fer	-6373
▁INT	-6374
▁led	-6375
637.2	-6376
erate	-6377
itary	-6378
▁(15)	-6379
▁0.40	-6380
▁AgNO	-6381
▁Engl	-6382
▁unex	-6383
Actual	-6384
orable	-6385
pected	-6386
▁0.005	-6387
▁Fresh	-6388
▁Monit	-6389
▁build	-6390
▁demon	-6391
▁imper	-6392
▁spark	-6393
▁stead	-6394
▁ECONOM	-6395
▁bigger	-6396
▁uncont	-6397
▁.𝑑𝑙⃗⃗⃗⃗	-6398
▁Certain	-6399
▁capping	-6400
▁cheaper	-6401
▁fastest	-6402
▁heating	-6403
▁pyramid	-6404
▁sinking	-6405
▁succeed	-6406
agulation	-6407
▁Controll	-6408
▁Standard	-6409
▁bearings	-6410
▁hoarding	-6411
▁imported	-6412
▁inherent	-6413
▁training	-6414
▁Carbonate	-6415
▁construct	-6416
▁hydraulic	-6417
▁schematic	-6418
▁Conclusion	-6419
▁Pollutants	-6420
▁alkalinity	-6421
▁anticipate	-6422
▁derivative	-6423
▁filtration	-6424
▁indicating	-6425
▁unexpected	-6426
▁Mathematics	-6427
▁Stagflation	-6428
▁substituted	-6429
▁contaminants	-6430
▁macroeconomics	-6431
46	-6432
89	-6433
ih	-6434
12)	-6435
220	-6436
▁2𝜋	-6437
▁=0	-6438
▁Ed	-6439
▁→2	-6440
500(	-6441
acid	-6442
atin	-6443
lene	-6444
unit	-6445
yond	-6446
▁1.2	-6447
▁105	-6448
▁dro	-6449
▁emp	-6450
acing	-6451
odium	-6452
▁duty	-6453
▁garb	-6454
▁leak	-6455
▁30000	-6456
ituting	-6457
▁beyond	-6458
▁branch	-6459
▁enable	-6460
▁helium	-6461
▁irradi	-6462
▁networ	-6463
▁coordin	-6464
▁garbage	-6465
▁polymer	-6466
ihilation	-6467
▁Producer	-6468
▁autonomy	-6469
▁borrowed	-6470
▁bottlene	-6471
▁branches	-6472
▁flexible	-6473
▁isenergy	-6474
▁majority	-6475
▁amplified	-6476
▁describes	-6477
▁gradually	-6478
▁identical	-6479
▁transform	-6480
▁appearance	-6481
▁attractive	-6482
▁coordinates	-6483
▁transparent	-6484
,/	-6485
HG	-6486
ma	-6487
𝑜𝑤	-6488
▁EM	-6489
▁TC	-6490
▁vi	-6491
▁	-6492
REAT	-6493
anol	-6494
▁(10	-6495
▁GHG	-6496
▁ROH	-6497
▁𝑃𝑜𝑤	-6498
where	-6499
▁1950	-6500
▁7000	-6501
▁Boil	-6502
▁Debt	-6503
▁Note	-6504
▁Role	-6505
▁aque	-6506
▁hist	-6507
▁self	-6508
▁TREAT	-6509
▁annum	-6510
▁began	-6511
▁impos	-6512
▁𝑃𝑜𝑤𝑒𝑟	-6513
▁incent	-6514
▁passed	-6515
▁spring	-6516
portions	-6517
▁Recycle	-6518
▁ambient	-6519
▁aqueous	-6520
▁expands	-6521
▁External	-6522
▁adequate	-6523
▁nitrogen	-6524
▁remained	-6525
▁Important	-6526
▁TREATMENT	-6527
▁explosion	-6528
▁localized	-6529
▁statement	-6530
▁viewpoint	-6531
▁dimensions	-6532
▁exchanging	-6533
▁intersects	-6534
▁structures	-6535
▁undertakes	-6536
▁proportions	-6537
=6	-6538
gs	-6539
𝑃〉	-6540
cid	-6541
fit	-6542
ini	-6543
oks	-6544
ped	-6545
ret	-6546
▁(8	-6547
▁dV	-6548
▁𝐴𝑖	-6549
ingh	-6550
▁Not	-6551
▁Pet	-6552
▁egs	-6553
▁wat	-6554
▁±1,	-6555
▁±2,	-6556
▁±3,	-6557
▁〈𝑃〉	-6558
ional	-6559
plets	-6560
recip	-6561
▁4000	-6562
▁Area	-6563
▁Prot	-6564
,10,8)	-6565
▁Singh	-6566
▁holes	-6567
▁Precip	-6568
▁Source	-6569
▁choice	-6570
▁device	-6571
▁excite	-6572
▁forced	-6573
▁global	-6574
▁slight	-6575
12121212	-6576
ffective	-6577
ulations	-6578
▁arising	-6579
▁deficit	-6580
▁obsolete	-6581
▁protecting	-6582
▁Expenditure	-6583
▁Incineration	-6584
▁electrolysis	-6585
SS	-6586
iP	-6587
ɸB	-6588
0.1	-6589
50)	-6590
ars	-6591
bec	-6592
cap	-6593
esh	-6594
▁−µ	-6595
abus	-6596
etyl	-6597
rast	-6598
soda	-6599
▁2.5	-6600
▁=12	-6601
▁Ans	-6602
▁Bed	-6603
▁Flu	-6604
▁PAC	-6605
▁SYD	-6606
▁Sem	-6607
▁Und	-6608
▁cit	-6609
▁deg	-6610
utron	-6611
▁Same	-6612
▁lect	-6613
▁lost	-6614
▁mesh	-6615
▁note	-6616
▁pour	-6617
▁syll	-6618
𝑠𝑖𝑛𝜙1	-6619
earate	-6620
▁gears	-6621
▁liner	-6622
▁rents	-6623
▁volts	-6624
.26424)	-6625
reeping	-6626
relativ	-6627
▁ethers	-6628
▁repaid	-6629
remental	-6630
▁accepts	-6631
▁combine	-6632
▁compete	-6633
▁coolant	-6634
▁crystal	-6635
▁nucleus	-6636
▁potable	-6637
▁reality	-6638
▁storing	-6639
▁continue	-6640
▁declines	-6641
▁deferred	-6642
▁hierarch	-6643
▁landless	-6644
▁lectures	-6645
▁portions	-6646
▁syllabus	-6647
▁-1,00,000	-6648
▁Community	-6649
▁diffusion	-6650
▁dividends	-6651
▁sulphates	-6652
▁valuables	-6653
▁currencies	-6654
▁preventing	-6655
▁profitable	-6656
▁accelerated	-6657
▁transitions	-6658
▁distributing	-6659
▁establishing	-6660
▁manufacturer	-6661
Net	-6662
une	-6663
come	-6664
pent	-6665
want	-6666
▁9.1	-6667
▁CNG	-6668
orpor	-6669
▁Requ	-6670
▁away	-6671
istant	-6672
wanted	-6673
▁flood	-6674
pentane	-6675
ydrogen	-6676
▁Cation	-6677
▁Series	-6678
▁smooth	-6679
▁animals	-6680
▁decline	-6681
▁integer	-6682
▁totally	-6683
▁washing	-6684
atistical	-6685
▁attached	-6686
▁generate	-6687
▁incorpor	-6688
▁unwanted	-6689
▁dangerous	-6690
▁extensive	-6691
▁iteration	-6692
▁appreciable	-6693
▁businessmen	-6694
▁radioactive	-6695
▁applications	-6696
▁permeability	-6697
▁transferring	-6698
▁Determination	-6699
(-	-6700
No	-6701
ml	-6702
▁𝜎	-6703
222	-6704
600	-6705
Ant	-6706
Pre	-6707
aim	-6708
eff	-6709
ney	-6710
▁2(	-6711
▁km	-6712
▁𝜇0	-6713
acle	-6714
ched	-6715
ourn	-6716
uide	-6717
unct	-6718
▁(1,	-6719
▁50-	-6720
▁Dig	-6721
▁PEM	-6722
▁bur	-6723
▁fer	-6724
1,000	-6725
40904	-6726
urity	-6727
vered	-6728
▁bulk	-6729
▁exer	-6730
▁lend	-6731
▁sets	-6732
▁virt	-6733
erated	-6734
pqqqpp	-6735
rument	-6736
stacle	-6737
uclear	-6738
▁-----	-6739
▁equip	-6740
▁journ	-6741
▁oblig	-6742
▁urban	-6743
Anticip	-6744
oundary	-6745
▁Cheque	-6746
▁oxides	-6747
▁passes	-6748
aturally	-6749
ceptable	-6750
charging	-6751
▁Nuclear	-6752
▁Regener	-6753
▁Systems	-6754
▁[25,000	-6755
▁alkenes	-6756
▁compare	-6757
1004.09.0	-6758
▁Division	-6759
▁Suitable	-6760
▁ofenergy	-6761
Prevention	-6762
▁Synthetic	-6763
▁computers	-6764
▁superpose	-6765
▁compressed	-6766
▁conducting	-6767
▁equipments	-6768
Anticipation	-6769
▁Instruments	-6770
▁attenuation	-6771
▁Regeneration	-6772
▁comparatively	-6773
▁spontaneously	-6774
2?	-6775
83	-6776
	-6777
For	-6778
hyd	-6779
▁1(	-6780
▁3?	-6781
▁40%	-6782
▁ole	-6783
▁Hawf	-6784
▁Post	-6785
▁kept	-6786
▁lies	-6787
▁mere	-6788
▁tall	-6789
▁zinc	-6790
▁Large	-6791
▁compl	-6792
argeted	-6793
▁atomic	-6794
▁chosen	-6795
▁define	-6796
▁digits	-6797
▁levied	-6798
▁office	-6799
▁poison	-6800
particle	-6801
▁enterpr	-6802
▁expense	-6803
▁intense	-6804
▁introdu	-6805
▁Rational	-6806
▁analyses	-6807
▁chloride	-6808
▁proceeds	-6809
▁regulate	-6810
▁Normalize	-6811
▁recovered	-6812
▁completion	-6813
▁statistics	-6814
▁successful	-6815
▁systematic	-6816
▁sustainable	-6817
▁Substituting	-6818
▁annihilation	-6819
ED	-6820
PS	-6821
▁π	-6822
▁𝑅	-6823
	-6824
(11	-6825
ony	-6826
▁EN	-6827
▁TR	-6828
acyl	-6829
educ	-6830
▁4.2	-6831
▁Neg	-6832
▁Rot	-6833
▁bio	-6834
ickel	-6835
index	-6836
olves	-6837
▁Prom	-6838
▁Wage	-6839
▁arri	-6840
▁educ	-6841
▁says	-6842
covery	-6843
igrams	-6844
ithium	-6845
simple	-6846
ularly	-6847
▁Anion	-6848
▁Nutri	-6849
▁WASTE	-6850
▁doesn	-6851
▁funda	-6852
▁gains	-6853
▁Cycles	-6854
▁Rotary	-6855
▁enters	-6856
▁interl	-6857
▁mirror	-6858
▁physic	-6859
▁render	-6860
▁scient	-6861
▁stabil	-6862
▁Conduct	-6863
▁Formula	-6864
▁Further	-6865
▁Letters	-6866
▁Scoping	-6867
▁cutting	-6868
▁earners	-6869
▁holding	-6870
▁mineral	-6871
▁retired	-6872
▁signals	-6873
▁Cathodic	-6874
▁Coherent	-6875
▁Nutrient	-6876
▁aluminum	-6877
▁earnings	-6878
▁standard	-6879
rification	-6880
▁Effective	-6881
▁Multimode	-6882
▁Pollutant	-6883
▁borrowers	-6884
▁municipal	-6885
▁radiative	-6886
▁fractional	-6887
▁agriculture	-6888
▁communities	-6889
▁hydrophilic	-6890
▁immediately	-6891
▁sacrificial	-6892
▁artificially	-6893
▁expectations	-6894
▁isomerization	-6895
1%	-6896
48	-6897
As	-6898
SV	-6899
kB	-6900
mc	-6901
▁𝐻	-6902
▁𝑚	-6903
𝜇𝜎	-6904
147	-6905
25,	-6906
5.1	-6907
ati	-6908
hel	-6909
pan	-6910
▁5,	-6911
▁Jo	-6912
ocks	-6913
oder	-6914
qqpp	-6915
requ	-6916
▁Mac	-6917
,925,	-6918
1,316	-6919
Given	-6920
gency	-6921
order	-6922
rehen	-6923
▁else	-6924
▁𝜕𝐸⃗⃗	-6925
ewable	-6926
▁Heter	-6927
▁abund	-6928
▁alloy	-6929
▁birth	-6930
▁energ	-6931
▁fluct	-6932
▁impar	-6933
▁motor	-6934
▁polyp	-6935
▁slope	-6936
▁waveg	-6937
essment	-6938
▁21,316	-6939
▁patent	-6940
▁shifts	-6941
▁sticks	-6942
requency	-6943
▁Medical	-6944
▁passive	-6945
Boltzmann	-6946
▁accident	-6947
▁birthday	-6948
▁managers	-6949
▁versions	-6950
▁Oxidation	-6951
▁Subsidies	-6952
▁biodegrad	-6953
▁manganese	-6954
▁objective	-6955
..........2	-6956
▁Assessment	-6957
▁molybdenum	-6958
▁Autotrophic	-6959
▁Composition	-6960
▁Diminishing	-6961
▁indifferent	-6962
▁developments	-6963
▁intermediate	-6964
▁Heterotrophic	-6965
,0	-6966
1?	-6967
21	-6968
31	-6969
LY	-6970
Pa	-6971
Vm	-6972
▁𝑓	-6973
()(	-6974
(1)	-6975
1),	-6976
223	-6977
TVC	-6978
UPP	-6979
aps	-6980
lab	-6981
ohn	-6982
−1]	-6983
▁&?	-6984
▁65	-6985
▁BE	-6986
▁Tr	-6987
▁dx	-6988
▁𝑑𝑇	-6989
▁𝑓⃗	-6990
	-6991
ABLE	-6992
Cost	-6993
clan	-6994
fort	-6995
made	-6996
nels	-6997
▁195	-6998
▁Rad	-6999
▁lux	-7000
,8,6)	-7001
ATION	-7002
UPPLY	-7003
abric	-7004
aging	-7005
chain	-7006
sales	-7007
……………	-7008
▁1026	-7009
▁Cold	-7010
▁Make	-7011
▁Mean	-7012
▁Oper	-7013
▁Redu	-7014
▁Rise	-7015
𝑐𝑜𝑠𝜙1	-7016
annels	-7017
capita	-7018
market	-7019
▁Paris	-7020
▁Sewer	-7021
▁Table	-7022
▁ammon	-7023
▁emerg	-7024
▁solar	-7025
▁unfav	-7026
▁−𝐻⃗⃗⃗	-7027
clanche	-7028
cycling	-7029
roscopy	-7030
▁25,000	-7031
▁Affect	-7032
▁Calgon	-7033
▁Excess	-7034
▁SUPPLY	-7035
▁agency	-7036
▁belong	-7037
▁optics	-7038
▁ranges	-7039
▁school	-7040
▁superv	-7041
	-7042
annually	-7043
athering	-7044
electron	-7045
osphates	-7046
▁20,000(	-7047
▁Instead	-7048
▁Through	-7049
▁neutral	-7050
▁nitrate	-7051
▁Research	-7052
▁Sulphate	-7053
▁Tribunal	-7054
▁actually	-7055
▁computer	-7056
▁incoming	-7057
▁openings	-7058
▁sulphate	-7059
ernational	-7060
▁Affecting	-7061
▁Leclanche	-7062
▁Percapita	-7063
▁Recycling	-7064
▁conduction	-7065
▁surrounded	-7066
▁Environment	-7067
▁electronics	-7068
▁homogeneous	-7069
▁transmitter	-7070
▁identification	-7071
);	-7072
2→	-7073
7%	-7074
US	-7075
cE	-7076
..1	-7077
1.4	-7078
707	-7079
ows	-7080
pag	-7081
▁95	-7082
285.	-7083
cury	-7084
ieve	-7085
▁GIS	-7086
▁abi	-7087
▁fed	-7088
▁rig	-7089
educt	-7090
embly	-7091
▁Over	-7092
▁hour	-7093
▁tele	-7094
▁till	-7095
285.00	-7096
Energy	-7097
inimum	-7098
isible	-7099
onomic	-7100
rected	-7101
urable	-7102
▁Decom	-7103
▁MASER	-7104
,10,10)	-7105
balance	-7106
ception	-7107
emanded	-7108
▁Propag	-7109
▁Reserv	-7110
▁deduct	-7111
▁recomm	-7112
▁abiotic	-7113
▁alcohol	-7114
▁upwards	-7115
▁Aeration	-7116
▁knocking	-7117
▁oxidised	-7118
▁removing	-7119
▁Consumers	-7120
▁improving	-7121
▁thecalled	-7122
environment	-7123
▁Hydrograph	-7124
▁Transverse	-7125
▁Propagation	-7126
▁approximately	-7127
▁electrochemical	-7128
1/	-7129
EF	-7130
IR	-7131
UM	-7132
Va	-7133
dx	-7134
ˆ,	-7135
−	-7136
=	-7137
2%)	-7138
4):	-7139
APw	-7140
dag	-7141
meq	-7142
pic	-7143
rep	-7144
→	-7145
▁69	-7146
▁=.	-7147
▁Bu	-7148
▁Dt	-7149
▁Sm	-7150
▁TP	-7151
▁dl	-7152
▁ed	-7153
▁𝐽⃗	-7154
▁𝑑𝜆	-7155
▁𝑣⃗	-7156
▁𝜕2	-7157
▁𝜕𝐹	-7158
72.4	-7159
FCAC	-7160
Soda	-7161
ened	-7162
epep	-7163
llar	-7164
ocol	-7165
outh	-7166
uing	-7167
→	-7168
−−−−	-7169
▁2.3	-7170
▁99%	-7171
▁=2,	-7172
▁LAW	-7173
▁Ltd	-7174
▁MgZ	-7175
▁Moh	-7176
▁bub	-7177
▁mil	-7178
1.52%	-7179
10%2%	-7180
ithms	-7181
oking	-7182
xyiyj	-7183
▁(13)	-7184
▁(16)	-7185
▁Curl	-7186
▁Fine	-7187
▁Mill	-7188
▁Rest	-7189
▁Serv	-7190
▁came	-7191
▁dict	-7192
▁hope	-7193
▁plus	-7194
▁𝐸⃗⃗]	-7195
31.454	-7196
72.434	-7197
955.6+	-7198
orists	-7199
ounded	-7200
payers	-7201
▁1,00,	-7202
▁1,000	-7203
▁Algor	-7204
▁Bimal	-7205
▁Meher	-7206
▁Modem	-7207
▁Prove	-7208
▁World	-7209
▁disco	-7210
▁seems	-7211
▁treat	-7212
▁(	-7213
iveness	-7214
picuous	-7215
reation	-7216
reprene	-7217
→=+−	-7218
▁11.52%	-7219
▁Acting	-7220
▁Budget	-7221
▁Graded	-7222
▁Nalini	-7223
▁attack	-7224
▁banker	-7225
▁convex	-7226
▁marked	-7227
▁sealed	-7228
confined	-7229
▁Discuss	-7230
▁chained	-7231
▁demonst	-7232
▁heptane	-7233
▁protons	-7234
▁science	-7235
▁unitary	-7236
rehensive	-7237
▁Business	-7238
▁Circuits	-7239
▁Protocol	-7240
▁adjusted	-7241
▁standing	-7242
lationship	-7243
lorination	-7244
▁0.40(100%	-7245
▁Integrals	-7246
▁absorbing	-7247
▁deflation	-7248
▁electrost	-7249
▁imperfect	-7250
▁injection	-7251
▁isooctane	-7252
▁mentioned	-7253
▁sincerely	-7254
▁territory	-7255
▁theorists	-7256
▁thickened	-7257
▁vibration	-7258
▁Algorithms	-7259
▁Individual	-7260
▁Investment	-7261
▁Relatively	-7262
▁Substances	-7263
▁conspicuous	-7264
▁crystalline	-7265
▁differently	-7266
▁Measurements	-7267
▁institutions	-7268
▁photochemical	-7269
▁responsiveness	-7270
yed	-7271
yto	-7272
▁Bt	-7273
▁EX	-7274
▁wa	-7275
▁Jan	-7276
▁Mic	-7277
▁Top	-7278
▁lie	-7279
▁pin	-7280
erits	-7281
ready	-7282
width	-7283
▁Laun	-7284
▁Life	-7285
▁Orig	-7286
▁Wind	-7287
▁cone	-7288
▁qual	-7289
actory	-7290
gallon	-7291
inking	-7292
▁Rings	-7293
▁stain	-7294
▁wires	-7295
bitrary	-7296
▁Giffen	-7297
▁cooper	-7298
▁linked	-7299
▁scheme	-7300
otential	-7301
▁already	-7302
▁bending	-7303
▁disting	-7304
▁finally	-7305
▁gaseous	-7306
▁leakage	-7307
▁minutes	-7308
	-7309
▁radicals	-7310
▁recycled	-7311
▁unsatisf	-7312
▁Launching	-7313
▁Mechanics	-7314
▁activated	-7315
▁destroyed	-7316
▁stainless	-7317
▁advertising	-7318
▁contaminate	-7319
▁depopulated	-7320
:?	-7321
𝐴2	-7322
.2.	-7323
=−=	-7324
box	-7325
iar	-7326
lap	-7327
set	-7328
▁24	-7329
▁OR	-7330
▁Px	-7331
▁ɸE	-7332
▁𝜙)	-7333
asis	-7334
efly	-7335
oirs	-7336
▁0.6	-7337
▁111	-7338
▁sty	-7339
ceipt	-7340
poned	-7341
rared	-7342
space	-7343
▁(28)	-7344
▁0.15	-7345
▁Hyet	-7346
▁cabl	-7347
▁emph	-7348
▁govt	-7349
▁jobs	-7350
▁surv	-7351
itions	-7352
regard	-7353
▁Clark	-7354
▁adsor	-7355
▁docum	-7356
▁leave	-7357
▁volum	-7358
▁wheat	-7359
	-7360
ections	-7361
erences	-7362
mission	-7363
▁States	-7364
▁aspect	-7365
▁digest	-7366
▁fitted	-7367
▁images	-7368
▁issued	-7369
▁requis	-7370
▁retard	-7371
iculties	-7372
orically	-7373
▁Aquifer	-7374
▁Crevice	-7375
▁Receipt	-7376
▁acquire	-7377
▁briefly	-7378
▁cabling	-7379
▁duality	-7380
▁extends	-7381
▁hydroly	-7382
▁ignores	-7383
▁listing	-7384
▁overlap	-7385
▁setting	-7386
ibilities	-7387
intensity	-7388
rateerest	-7389
▁Standing	-7390
▁emphasis	-7391
▁infrared	-7392
▁nutrient	-7393
▁opposite	-7394
▁Reactions	-7395
▁agitation	-7396
▁depletion	-7397
▁directive	-7398
▁enclosing	-7399
▁financing	-7400
▁maintains	-7401
▁postponed	-7402
▁specifies	-7403
▁subsidies	-7404
▁Hyetograph	-7405
▁convenient	-7406
▁difficulty	-7407
▁disposable	-7408
▁performing	-7409
▁propagated	-7410
▁reservoirs	-7411
▁volatility	-7412
▁Destruction	-7413
▁equivalents	-7414
▁perspective	-7415
▁Difficulties	-7416
▁disinfection	-7417
▁transactions	-7418
▁………………………………	-7419
▁𝑒𝑖(𝑤𝑡−𝑘.𝑟)𝑘𝑥	-7420
▁𝑒𝑖(𝑤𝑡−𝑘.𝑟)𝑘𝑧	-7421
67	-7422
iF	-7423
kx	-7424
	-7425
,85	-7426
Lit	-7427
▁(𝑛	-7428
▁-2	-7429
▁4:	-7430
▁EP	-7431
▁TV	-7432
▁𝐹⃗	-7433
2300	-7434
apot	-7435
erms	-7436
inis	-7437
mita	-7438
rolo	-7439
vere	-7440
▁GAC	-7441
▁Lab	-7442
▁bad	-7443
▁tou	-7444
books	-7445
brane	-7446
ethyl	-7447
icate	-7448
icies	-7449
iting	-7450
itron	-7451
rence	-7452
▁(22)	-7453
▁100.	-7454
▁Sust	-7455
▁Watt	-7456
,10,2)	-7457
atinum	-7458
eorolo	-7459
icated	-7460
urance	-7461
▁calor	-7462
▁delay	-7463
▁fever	-7464
▁indiv	-7465
▁meant	-7466
▁repay	-7467
changed	-7468
ivation	-7469
▁Europe	-7470
▁Object	-7471
▁dilute	-7472
▁finite	-7473
▁lowest	-7474
▁severe	-7475
▁simply	-7476
▁slowly	-7477
apotrans	-7478
enerated	-7479
lammable	-7480
▁Susmita	-7481
▁Sustain	-7482
▁induced	-7483
▁methane	-7484
▁monitor	-7485
radiative	-7486
▁elevated	-7487
▁indicate	-7488
▁membrane	-7489
▁platinum	-7490
▁policies	-7491
▁positron	-7492
▁security	-7493
▁21,316,85	-7494
▁Estuarine	-7495
▁practices	-7496
▁textbooks	-7497
▁unchanged	-7498
▁withdrawn	-7499
▁Objectives	-7500
▁boundaries	-7501
▁concentric	-7502
▁occurrence	-7503
▁depreciated	-7504
▁regenerated	-7505
▁Organization	-7506
▁modification	-7507
▁demulsification	-7508
-4	-7509
0=	-7510
5:	-7511
GY	-7512
▁𝑤	-7513
𝑒𝑛	-7514
550	-7515
630	-7516
ELL	-7517
ESS	-7518
TBE	-7519
iox	-7520
kes	-7521
▁=2	-7522
▁dy	-7523
▁vo	-7524
𝑒𝑛𝑐	-7525
1)/(	-7526
ARDN	-7527
ique	-7528
orph	-7529
raft	-7530
ried	-7531
▁4.4	-7532
▁6.0	-7533
▁74%	-7534
▁ASP	-7535
▁Adi	-7536
▁Eco	-7537
▁LHS	-7538
▁Raw	-7539
▁	-7540
e	-7541
t	-7542
i	-7543
a	-7544
o	-7545
n	-7546
s	-7547
r	-7548
c	-7549
l	-7550
h	-7551
d	-7552
u	-7553
m	-7554
f	-7555
p	-7556
g	-7557
y	-7558
b	-7559
.	-7560
w	-7561
v	-7562
,	-7563
0	-7564
T	-7565
:	-7566
x	-7567
)	-7568
k	-7569
2	-7570
1	-7571
(	-7572
I	-7573
E	-7574
C	-7575
A	-7576
D	-7577
-	-7578
?	-7579
W	-7580
S	-7581
P	-7582
=	-7583
q	-7584
5	-7585
O	-7586
R	-7587
3	-7588
⃗	-7589
N	-7590
4	-7591
B	-7592
F	-7593
H	-7594
M	-7595
+	-7596
/	-7597
L	-7598
'	-7599
6	-7600
8	-7601
z	-7602
G	-7603
7	-7604
&	-7605
9	-7606
j	-7607
V	-7608
%	-7609
…	-7610
_	-7611
Q	-7612
−	-7613
U	-7614
	-7615
"	-7616
𝜕	-7617
𝐸	-7618
	-7619
𝑡	-7620
𝑖	-7621
K	-7622
;	-7623
→	-7624
∇	-7625
𝑘	-7626
𝑑	-7627
×	-7628
Y	-7629
	-7630
	-7631
>	-7632
X	-7633
𝐴	-7634
	-7635
[	-7636
]	-7637
𝑥	-7638
𝑛	-7639
𝑒	-7640
	-7641
	-7642
𝐻	-7643
̂	-7644
𝑠	-7645
𝜙	-7646
	-7647
𝑤	-7648
𝑟	-7649
Z	-7650
λ	-7651
J	-7652
	-7653
𝑎	-7654
µ	-7655
𝑦	-7656
𝐵	-7657
𝑧	-7658
θ	-7659
<	-7660
𝑐	-7661
𝟐	-7662
	-7663
¬	-7664
𝜆	-7665
*	-7666
ν	-7667
μ	-7668
ε	-7669
$	-7670
	-7671
Å	-7672
𝑇	-7673
𝑗	-7674
√	-7675
𝑜	-7676
𝐷	-7677
	-7678
𝐽	-7679
	-7680
	-7681
ψ	-7682
𝑣	-7683
	-7684
	-7685
	-7686
	-7687
	-7688
	-7689
𝜋	-7690
𝐼	-7691
∆	-7692
✓	-7693
𝜇	-7694
∮	-7695
	-7696
	-7697
°	-7698
±	-7699
	-7700
	-7701
	-7702
	-7703
𝑓	-7704
	-7705
𝝀	-7706
~	-7707
𝜃	-7708
𝒏	-7709
𝑅	-7710
π	-7711
	-7712
𝑃	-7713
ɸ	-7714
	-7715
𝐹	-7716
𝟏	-7717
𝑚	-7718
𝜎	-7719
{	-7720
}	-7721
ω	-7722
	-7723
ρ	-7724
	-7725
𝑙	-7726
	-7727
𝜀	-7728
𝜓	-7729
ˆ	-7730
〈	-7731
𝐿	-7732
	-7733
𝜖	-7734
〉	-7735
❖	-7736
	-7737
